<s>
<e>
<unk>
,
.
the
in
of
and
die
der
to
und
a
@-@
is
that
zu
for
den
von
&quot;
ist
-
on
für
(
an
)
mit
with
das
The
be
des
auf
are
as
eine
I
this
:
im
es
Sie
it
nicht
werden
we
by
ein
dass
have
dem
not
sich
Die
you
wir
will
which
auch
or
at
from
was
sind
wird
&apos;s
als
has
um
In
oder
ich
all
can
our
also
über
haben
European
so
/
einer
&apos;
hat
sie
wie
!
?
zur
einen
er
aus
bei
Das
Union
your
its
Ich
können
but
We
am
one
would
more
their
einem
nach
been
;
zum
This
diese
EU
It
nur
uns
Wir
durch
should
kann
Mr
s
Der
de
un@@
dieser
...
Commission
do
very
must
vor
they
daß
Es
us
Kommission
noch
there
other
time
new
wurde
only
er@@
like
aber
President
Hotel
about
man
ver@@
wenn
an@@
Herr
sein
sehr
müssen
up
i
these
o
re@@
en
who
no
e
S@@
war
if
diesem
%
k@@
alle
out
te
&#91;
in@@
any
&#93;
mehr
2
Europäischen
Europe
A
en@@
t
B@@
people
P@@
into
were
s@@
Parliament
t@@
bis
ten
well
such
eines
möchte
1
what
ge@@
States
than
use
countries
T@@
K@@
report
Member
my
vom
ihre
his
when
need
most
some
first
A@@
C@@
Präsident
unter
sowie
gibt
D@@
ab@@
d@@
G@@
Council
work
now
H@@
3
dieses
them
make
many
hotel
be@@
important
between
p@@
F@@
L@@
M@@
because
system
hier
zwischen
way
take
E@@
f@@
muss
y
b@@
g@@
da
he
able
Bericht
m
keine
N@@
n@@
unsere
made
Parlament
two
information
had
e@@
o@@
z@@
years
Ihnen
W@@
An@@
just
world
ing
al@@
anderen
over
support
m@@
Mitgliedstaaten
c@@
If
R@@
those
Europa
Ver@@
ein@@
4
end
where
ch@@
immer
policy
Wenn
being
dann
dies
di@@
gegen
5
V@@
may
d
even
Im
damit
diesen
me
y@@
wurden
year
u@@
ter
sch@@
st@@
right
al
ed
de@@
aus@@
good
order
see
Diese
Zeit
Frau
part
area
v@@
i@@
10
unserer
O@@
sondern
seine
Ab@@
ers
same
habe
Ihre
li@@
here
market
place
le
after
a@@
jedoch
through
You
Europäische
own
ts
ent@@
how
political
possible
economic
neue
Menschen
ation
&amp;
As
ung
heute
could
si@@
Jahr
then
el@@
ar@@
l
development
h@@
J@@
used
There
gen
l@@
within
k
rights
j@@
want
I@@
bereits
For
country
against
ti@@
much
both
ihrer
europäischen
under
international
sollte
denen
Jahren
ohne
mich
neuen
find
&#124;
therefore
public
.@@
andere
high
finden
Sch@@
point
does
auf@@
Z@@
ro@@
free
Rat
without
Entwicklung
zwei
r@@
ri@@
room
or@@
on@@
last
sollten
Frage
vor@@
services
machen
long
number
great
allen
el
ganz
still
service
es@@
zu@@
ate
fact
Re@@
n
social
la
u
ge
at@@
say
available
bietet
geht
set
view
different
Ein@@
know
liegt
viele
Welt
Mit
ra@@
Ein
weil
already
le@@
future
Unternehmen
w@@
dazu
um@@
before
believe
too
g
course
In@@
se
E
get
today
ungen
20
6
wieder
denn
That
jetzt
30
seiner
But
case
quality
ungs@@
day
products
US
Aus@@
level
data
2009
darauf
cannot
per
process
think
Lage
über@@
p
Maßnahmen
Bereich
Informationen
go
7
et
tes
selbst
einige
her
sten
city
human
dafür
schon
am@@
ar
offers
b
financial
situation
c
during
ihren
Commissioner
U@@
ihr
best
So
dis@@
national
Herrn
Jahre
rooms
-@@
em@@
geben
small
allem
including
example
ob
Vor@@
said
würde
bin
means
Arbeit
mir
issue
viel
th@@
debate
Er@@
Al@@
Dies
8
sagen
since
Eine
every
Land
z
proposal
question
All
ab
meine
ern
x
bar
business
wollen
help
based
China
unseren
However
Our
each
Und
gut
stehen
Be@@
15
access
ated
problem
Länder
clear
während
Für
wo
stellen
position
particular
ter@@
form
offer
Committee
ens
large
h
three
etwas
Internet
waren
next
nun
doch
common
lassen
measures
Zimmer
areas
et@@
energy
give
st
3@@
few
kommen
möglich
insbesondere
Wie
agreement
ch
sp@@
�
put
Art
provide
ischen
citizens
seit
far
ische
On
taken
2010
back
ins
r
ad@@
ale
ensure
again
systems
Rahmen
C
se@@
Unterstützung
come
Ländern
steht
2008
ersten
la@@
problems
enden
Parlaments
os
erhalten
further
lo@@
50
while
it@@
op@@
change
x@@
security
life
Zusammenarbeit
real
politischen
shall
Teil
company
sehen
given
necessary
ent
is@@
con@@
ert
S
beim
im@@
du
besteht
why
as@@
Fall
however
Namen
Un@@
Vorschlag
ende
Group
soll
12
USA
law
ste
To
St@@
cooperation
tun
located
vote
United
ber@@
less
Bürger
deren
group
stay
using
And
With
Ziel
seinen
needs
ja
System
always
eren
They
einfach
down
ting
wäre
letzten
drei
liche
co@@
full
Stadt
action
einmal
Bei
Problem
Fragen
ur@@
wichtig
better
At
hope
Euro
4@@
main
dabei
&apos;t
power
unter@@
Seite
state
lich
House
km
land
around
der@@
working
18@@
Community
f
open
T
Kollegen
ations
großen
old
men
große
Recht
2@@
*
making
protection
Daten
D
did
What
po@@
worden
ke
2007
ted
te@@
current
trade
production
ger
weiter
programme
line
ag@@
Was
become
legal
Sicherheit
Aber
9
bringen
terms
us@@
Y@@
welche
chen
ler
Bedeutung
Auf
Verfügung
ating
Er
whether
present
special
sh@@
vi@@
Fraktion
X@@
particularly
Regierung
ant
site
ap@@
together
ma@@
These
lichen
another
Möglichkeit
2000
Ihr
Staaten
Auch
children
When
que
gen@@
100
centre
bi@@
basis
management
Mrs
result
eigenen
Nach
könnte
B
second
ten@@
conditions
Als
qu@@
region
muß
ger@@
issues
bieten
wissen
gehen
ie
page
aller
davon
alles
sk@@
sen
Thema
ac@@
Ar@@
water
Probleme
German
5@@
Mar@@
certain
companies
25
Politik
ol@@
ly
women
role
darüber
ak@@
Weise
kein
government
non
führen
control
daher
Con@@
é@@
mo@@
ates
ne
health
les
di
ck@@
zi@@
close
sowohl
weitere
Service
experience
sector
especially
industry
Kunden
Kommissar
various
_
hatte
re
em
O
whole
called
erreichen
global
Ende
befindet
private
ine
hand
stellt
modern
ere
om@@
besonders
really
ihnen
ta@@
matter
Ihrer
done
meiner
au@@
Zukunft
account
local
location
00
24
Beispiel
wirklich
+
budget
gegenüber
innerhalb
specific
name
unterstützen
respect
natürlich
third
ings
&apos;@@
gi@@
create
Germany
verschiedenen
unser
Richtlinie
vielen
research
ul@@
Rolle
term
fully
to@@
going
2006
zwar
erte
days
major
entfernt
look
internationalen
million
Weg
politische
staff
decision
start
ä@@
Frauen
ze
ei@@
tra@@
ed@@
single
kommt
ges
tions
itself
software
crisis
something
Seiten
est
ne@@
schen
per@@
project
several
continue
pro@@
her@@
away
che
möchten
dort
least
europäische
pro
inter@@
resolution
7@@
rapporteur
ser@@
often
regard
age
Tag
Ro@@
New
Di@@
Ihren
off
growth
direkt
den@@
general
11
stand
following
list
Auf@@
Mo@@
erste
family
EUR
gentlemen
side
Hotels
rules
bo@@
range
transport
wish
ot@@
excellent
price
TV
He
da@@
19@@
food
Artikel
money
once
ask
so@@
personal
Um
P
directive
6@@
Ma@@
subject
field
environment
little
fast
Programm
art
ans
Software
L
Alle
ve
Hier
No
Co@@
Meinung
online
institutions
World
sen@@
ous
arbeiten
found
welcome
40
things
towards
air
nehmen
him
beiden
Pro@@
Situation
pre@@
until
isch
Lösung
ci@@
los
erten
Region
Zusammenhang
product
=
del
weniger
known
Uhr
M
increase
unserem
home
9@@
G
individual
ic
Madam
short
Ge@@
rather
2005
Treaty
Bo@@
ex@@
Hilfe
customers
opportunity
fen
par@@
ing@@
interest
town
ut@@
elle
value
let
gesagt
version
thank
Dieses
Mittel
aid
positive
design
forward
light
call
economy
est@@
®
ha@@
Leben
activities
approach
mi@@
building
resources
un
ni@@
quite
Produkte
Über@@
etwa
fi@@
provided
rate
jeder
daran
res
sogar
dessen
ber
yet
Präsidentin
standards
gilt
0@@
indem
State
Millionen
18
14
bzw.
.com
period
ken
sti@@
Haus
F
having
might
technology
ses
Zu@@
16
September
nämlich
Unter@@
Grund
Deshalb
taking
include
Europas
Members
among
agree
Schutz
key
2004
Rates
su@@
members
macht
bitte
ir@@
Par@@
solution
man@@
International
One
hi@@
hinaus
halten
gemacht
An
left
En@@
erung
times
R
nen
ca
behalf
due
8@@
points
ladies
Kinder
text
play
costs
proposals
no@@
framework
allow
After
wi@@
000
schaffen
zen
X
Deutschland
safety
amendments
red
above
via
eb@@
content
minutes
ö@@
ihn
easy
ce
others
Arbeits@@
Um@@
sche
einigen
reason
ene
ebenfalls
progress
ko@@
2003
ens@@
seinem
{
adopted
ihm
Berlin
Dieser
ds
co
Ebene
show
wei@@
w
makes
house
policies
Unsere
tri@@
effective
Bar@@
Th@@
ek@@
ec@@
darin
Personen
ali@@
words
difficult
Punkt
opinion
ster
IT
ü@@
Website
Form
alen
ra
enjoy
men@@
öffentlichen
tion
unterstützt
brauchen
K
website
sicher
gute
legislation
Finanz@@
projects
darf
application
station
ator
Aussprache
groups
results
ou@@
provides
led
favour
responsibility
ding
v
je
nationalen
attention
politik
gerade
Wirtschaft
gu@@
views
Qualität
simply
ati@@
il@@
ina
13
é
meisten
th
concerned
ob@@
ru@@
ally
contact
Rechte
Gemeinschaft
2001
do@@
glaube
addition
}
cultural
society
she
dürfen
Da
sea
ihrem
Ch@@
ka
end@@
beautiful
mit@@
Restaurant
genau
questions
nichts
ts@@
greater
sollen
Ex@@
importance
kon@@
gel@@
keinen
user
jeden
strategy
mon@@
durch@@
and@@
handelt
setzen
sei
ors
ideal
weiterhin
bu@@
Abstimmung
training
ons
environmental
V
complete
kind
zusammen
Sp@@
ben
nach@@
ung@@
step
gh@@
betrifft
low
eg@@
along
principle
recent
fer@@
würden
Ort
€
ago
Bezug
natural
wide
La
weit
century
60
sure
len
ischer
aufgrund
bedeutet
wichtige
EN
Kosten
car@@
tive
required
De@@
heart
Gesellschaft
statt
solche
sa@@
Inter@@
tu@@
deal
me@@
deutlich
employment
risk
besser
for@@
authorities
meeting
Zugang
clearly
führt
nutzen
eln
alten
zurück@@
Russia
ker
2002
findet
all@@
deshalb
top
bereich
November
bel@@
Haupt@@
enen
klar
etc
address
hin
0
four
Grund@@
besten
over@@
ms
pages
Kon@@
schnell
technical
achieve
plan
longer
Windows
breakfast
Le@@
erst
ma
past
Strategie
serious
nächsten
1@@
gehört
Richtung
ellen
enough
nature
needed
essential
months
person
cost
feel
ta
Von
car
gra@@
Ad@@
history
Menschenrechte
date
hin@@
Rechts@@
allerdings
standard
markets
Markt
directly
ia
$
thing
solutions
bring
bekannt
ad
ff@@
developed
ability
fall
Dank
live
proposed
lot
responsible
interests
recht
pool
central
ty
Umsetzung
Ansicht
du@@
related
currently
near
facilities
space
ep@@
April
pi@@
internal
beispielsweise
Aus
parties
ur
Ziele
lange
events
min@@
regions
Li@@
17
peace
ach@@
requirements
themselves
Nähe
young
bleiben
licher
visit
ging
guests
ner
Vertrag
Bedingungen
restaurant
democracy
Gu@@
ran@@
cht
Her@@
never
Verfahren
sion
language
eh@@
ise
Verantwortung
voll
efforts
involved
regulation
á@@
ck
Mon@@
ange@@
gemeinsamen
vielleicht
gestellt
From
Ent@@
Please
competition
Demokratie
force
ches
ters
mer@@
Anwendung
17@@
strong
wirtschaftlichen
Car@@
freedom
implementation
notwendig
hoffe
Grundlage
sozialen
Bau@@
changes
total
upon
extremely
voted
Doch
cases
N
bar@@
comfortable
ziehen
Geschichte
Interesse
France
team
Reihe
though
Am
Po@@
big
Version
Vorschläge
run
Man
kleinen
verwendet
democratic
keep
network
event
please
sc@@
Gra@@
könnten
ho@@
night
Gebiet
tige
regional
Or@@
Durch
GmbH
à
ary
erreicht
gt
Ri@@
Rück@@
foreign
Möglichkeiten
Institutionen
Herren
Bank
care
friendly
Neu@@
pa@@
prices
education
developing
comes
Daher
pay
hard
sprechen
either
Ihrem
ren@@
negotiations
true
zeigt
states
material
Debatte
1999
werde
consider
held
oft
bed
created
early
son
wenig
Man@@
file
American
share
500
seen
ig@@
music
situated
climate
thus
reform
ever
Tra@@
almost
fundamental
vier
everything
Lu@@
Tri@@
tischen
AG
funds
dar
80
200
Auswirkungen
ausge@@
French
under@@
tan@@
request
according
besch@@
looking
road
improve
hei@@
type
Israel
Lo@@
com@@
av@@
Se@@
unique
ell
ment
Dienstleistungen
capital
Hinblick
tax
form@@
H
effect
success
spielen
liegen
beach
meet
living
Paris
verschiedene
direct
Wirtschafts@@
wer@@
ance
act
try
gemeinsame
Abkommen
Office
additional
actually
Presidency
eller
ves
works
designed
workers
ß@@
ph@@
turn
rates
unternehmen
soon
hatten
ft
later
ER
famous
included
gegeben
lead
www.@@
verfügt
idea
Damen
ermöglicht
Tatsache
investment
tigen
Preis
bus
20@@
five
weltweit
ell@@
San
Berichterstatter
card
Bi@@
Regionen
Minuten
mar@@
wegen
understand
tragen
Park
links
U
liches
res@@
är@@
Verhandlungen
&gt;
Mitglieder
erforderlich
war@@
dern
receive
appropriate
Haushalts@@
Programme
accept
ebenso
Zu
initiative
danken
sed
program
center
outside
takes
mentioned
Ber@@
gesamten
bereit
go@@
ling
ways
majority
leben
II
fragen
ic@@
pl@@
UN
21
built
16@@
knowledge
sub@@
parts
check
procedure
darum
week
internationale
au
amount
Wasser@@
einzelnen
book
Vereinigten
users
Gruppe
reach
ity
bei@@
doing
tion@@
Liste
took
Entscheidung
19
Schritt
tern
hätte
entwickelt
weiteren
features
Geschäfts@@
denke
ari@@
mal
party
Bar
communication
gleichen
across
Außerdem
Nach@@
Ergebnis
hours
America
Zentrum
Bereichen
í@@
throughout
Kolleginnen
test
ties
lässt
media
How
guarantee
helfen
mail
pe@@
significant
certainly
By
Turkey
board
up@@
customer
konnte
gs
ver
Beziehungen
final
traditional
mer
Krise
Bevölkerung
jedem
connection
lin@@
context
mis@@
relations
ern@@
va
Änderungsanträge
legen
existing
add
Antwort
aware
military
performance
stage
00@@
writing
member
geführt
gleichzeitig
web
leading
70
tor
ets
lan@@
gemeinsam
tre@@
befinden
Änderungsantrag
Platz
Erfolg
geb@@
chten
although
Abgeordneten
EN@@
mu@@
bleibt
concerns
impact
Com@@
Blick
body
Türkei
population
gab
ure
wichtigen
heißt
AN@@
ana
weiß
cu@@
code
original
Web
zeigen
Cor@@
Geld
22
table
Japan
wohl
programmes
Pi@@
Ausdruck
ard
game
perfect
ev@@
cks
aten
10@@
Minister
Vi@@
active
Ko@@
ry
community
gesch@@
tic
wa@@
sch
DE
moment
So@@
lei@@
English
ang
ster@@
jede
1.@@
Förderung
South
Verordnung
ER@@
walk
Government
established
Dis@@
zeit
agreements
..
reasons
bekommen
My
Aufgabe
decisions
Y
Kontrolle
nothing
apply
professional
concerning
Verbindung
send
lu@@
committee
Mor@@
kleine
Seit
read
Qu@@
half
15@@
culture
London
z.B.
gebracht
completely
basic
remain
baren
he@@
includes
face
jobs
sense
Court
practice
Mail
cher
Projekt
Jahres
Mal
demand
ationen
Einsatz
verbunden
model
Online
90
il
PC
Unser
meinen
Forschung
Zum
W
unseres
Rei@@
Iran
bare
27
Sicherheits@@
allows
style
equipped
ES
Since
integration
tische
ori@@
values
choice
ieren
vo@@
enthalten
euro
neu
partners
ente
gestimmt
stop
star
Ausschusses
els
Sa@@
gung
internet
Information
objectives
Su@@
develop
Du@@
Partner
Behörden
received
gern
holiday
simple
East
tr@@
Nutzung
tung
Design
equipment
Erweiterung
jedes
move
fahren
ys
regarding
bit
Lösungen
ks
August
Russland
ative
ben@@
package
Entschließung
wichtigsten
benefit
ded
ges@@
fight
hinsichtlich
Lisbon
wobei
entire
id
Kar@@
Beitrag
Damit
don
richtig
governments
wor@@
tieren
goods
agricultural
files
Ausschuss
Landes
focus
23
park
No@@
applications
Let
quickly
function
IN@@
aim
concern
front
return
below
seems
objective
image
AR@@
IS@@
potential
mehrere
tet
zurück
treatment
gerne
self
May
rund
ps
lose
CD
Verbesserung
nice
reports
derzeit
fest
ba@@
ermöglichen
Bitte
eu@@
ganzen
fe
lichkeit
recently
computer
series
successful
Regierungen
ats
ski
Wei@@
Here
genommen
ganze
eigene
double
Text
Vor
job
mind
indeed
gar
Q@@
sing
Affairs
National
enthält
kan@@
size
neben
For@@
achieved
Schaffung
ast@@
kl@@
follow
levels
gel
coming
ces
prevent
June
higher
mean
Central
highly
contains
des@@
fair
wirtschaftliche
Umwelt@@
press
lack
guest
beginning
rest
balance
Bel@@
mp@@
Stunden
Management
cor@@
Ergebnisse
net
Barcelona
hotels
isches
Verbraucher
zusammen@@
ents
cken
Finally
fördern
anderer
gas
Gelegenheit
verbessern
verfahren
mm
increased
ah@@
RE@@
stra@@
border
hal@@
völlig
places
everyone
huge
Wort
whose
dialogue
added
AT@@
Notwendigkeit
Initiative
fer
office
fo@@
nuclear
iert
Verwendung
clean
Ukraine
Per@@
IT@@
AS@@
entwickeln
anzu@@
ok@@
soziale
Ta@@
presented
agreed
relevant
rec@@
Woche
Angebot
ore
Server
einge@@
Interessen
answer
sustainable
enter
note
closed
consumers
ders
ak
gleich
großer
fin@@
scher
enable
sites
shows
City
gehören
300
Darüber
asked
carried
Land@@
Frankreich
guten
principles
br@@
lage
Ni@@
einzu@@
floor
später
fünf
Bu@@
Some
ton
perhaps
direction
verfügen
ender
ass@@
Mitarbeiter
bestehen
Mit@@
Themen
hand@@
Kultur
Bild
ändern
Tage
tungs@@
commitment
verwenden
tatsächlich
oil
Lissabon
General
effects
Zeitpunkt
Team
nie
keyword
inc@@
complex
setting
Wert
nimmt
exchange
possibility
falls
former
considered
ES@@
14@@
choose
auszu@@
tliche
sorgen
Steuer@@
Gesundheit
har@@
Familie
forms
amendment
mann
reviews
server
Mi@@
Do@@
ser
enn@@
AL@@
sel@@
ess
travel
Organisation
ie@@
First
matters
Änderungen
ving
zunächst
meinem
suchen
ess@@
versch@@
ven@@
shown
Während
Of
ism
Now
status
ales
sts
Article
än@@
actions
tete
innovative
Person
materials
opportunities
capacity
Mai
video
Therefore
promote
pressure
treffen
came
behind
tig
eng@@
fl@@
Juni
thanks
tz@@
aspects
ence
Ba@@
response
j
angenommen
increasing
Erfahrung
latest
Markt@@
creation
sive
Africa
weise
dy
Italy
joint
und@@
Einführung
reduce
tungen
Kampf
popular
ments
lediglich
Wachstum
Spain
ones
previous
British
12@@
det
Anfang
stark
13@@
comp@@
billion
Dabei
verstehen
providing
speak
genden
sound
35
innen
bisher
gemäß
sta@@
details
Umwelt
hohen
lines
Debian
reached
fest@@
lang
remains
Herzen
Auswahl
tiert
Linux
Umgebung
safe
easily
ino
schriftlich
obwohl
prepared
limited
La@@
Am@@
tel@@
Ru@@
external
search
Mitglied
Prozess
Wasser
supply
Spiel@@
Fach@@
Lei@@
pf@@
berg
Anzahl
commercial
industrial
operation
partner
gesamte
äußerst
bestimmte
Museum
gewährleisten
Fahr@@
accommodation
somit
Aktivitäten
atmosphere
bringt
civil
Meer
por@@
produced
rich
ade
ano
Integration
Wahl
dr@@
1998
wer
versuchen
scheint
WTO
ya
Welt@@
Industrie
protect
link
land@@
efficient
Systems
maßnahmen
funding
summer
Sprache
ant@@
charge
Pre@@
cause
Produktion
class
fordern
Hand
December
chte
decided
uses
Convention
Bekämpfung
gesetzt
einschließlich
Amsterdam
Western
property
Raum
,000
submitted
Zahl
sto@@
leave
priority
gives
ST@@
bestimmten
Also
UN@@
word
Fortschritte
Si@@
zweite
ums
Gäste
York
independent
supported
Lebens@@
ro
Dinge
enlargement
pp@@
He@@
Party
enten
Ho@@
halte
organisation
similar
consumer
out@@
dar@@
ations@@
movement
2.@@
Natur
ies
col@@
produce
ators
island
film
speed
Au@@
Services
assistance
Business
ying
ann@@
meines
Sozial@@
rule
largest
fallen
Kommissarin
Erachtens
structure
ini
To@@
zahlreiche
Bestimmungen
programm
creating
enz@@
Preise
erster
systeme
Kur@@
größten
Insel
Kosovo
na
instrument
weisen
Jahrhundert
Investitionen
ground
tiger
the@@
bank
ort
möglichkeiten
Dezember
purpose
ste@@
tim@@
restaurants
Spiel
brought
Mehrheit
sagte
mobile
Handel
weiter@@
Erklärung
credit
option
Position
hohe
activity
stri@@
lau@@
regulations
weder
solchen
North
führung
ines
setzt
23@@
leicht
dadurch
steps
Stelle
dra@@
fe@@
March
Energie
frei
construction
source
stability
außerdem
teile
January
Gewalt
comm@@
bad
ese
einzige
vergangenen
Euro@@
Sal@@
ist@@
relation
schließlich
ship
emp@@
ourselves
six
insgesamt
IC@@
26
ban@@
post
sur@@
Funktion
sis
written
Macht
zweiten
Dialog
ausgestattet
mein
El@@
Entscheidungen
paid
instead
af@@
platz
van
Einzel@@
apartment
War@@
conference
instruments
lies
Ak@@
28
message
October
aler
ären
ation@@
zer@@
became
tem
une
variety
fu@@
pleased
Hand@@
categories
Republic
Punkte
discussion
hoch@@
ful
fishing
Gefahr
aufgenommen
aufzu@@
airport
study
om
leider
Gar@@
ll@@
ou
started
AC@@
Site
Vorschriften
Nur
Mediterranean
Today
mat@@
sieht
giving
Grenzen
Aufmerksamkeit
ssen
extra
gro@@
leisten
regards
str@@
agenda
distribution
allowed
März
Italian
Anforderungen
gl@@
distance
West
voll@@
medium
sm@@
Development
Club
benefits
#
Freiheit
legislative
45
Folgen
item
school
document
cross
anti
Hoch@@
pen@@
Küche
interesting
Strand
bezüglich
pass
effort
section
Ac@@
tell
ss@@
EC@@
violence
St.
stre@@
procedures
concept
genießen
zed
neuer
Booking.com
base
ier@@
Projekte
Spanish
statement
damage
Beschäftigung
kosten
click
Regeln
Rights
ite
geschlossen
lagen
compromise
bevor
weg
historical
payment
konnten
werk
Center
ah
contribution
mel@@
Bildung
с@@
Nationen
Musik
Bereiche
eigentlich
tool
Standpunkt
can@@
eri@@
provisions
July
require
round
growing
Villa
angesichts
Landwirtschaft
Präsidenten
1997
tors
aktuellen
eingesetzt
größte
our@@
era
Portugal
During
Gästebewertungen
Wettbewerb
stell@@
wenige
drive
nor
Reform
ality
village
bl@@
len@@
zehn
late
task
forces
Mal@@
EL@@
treten
Many
vol@@
quiet
Nor@@
fra@@
gr@@
Sk@@
europäischer
Kraft
finally
wine
1,@@
1.
are@@
criteria
tur@@
sports
wichtiger
teilen
digital
Entwicklungs@@
allein
genannten
labour
documents
box
pr@@
rise
ihres
Oktober
heit
iz@@
reading
integrated
challenges
Por@@
Anfrage
Linie
alternative
Höhe
express
tools
Bad
durchgeführt
Diskussion
equal
Januar
öffentliche
zone
ß
University
eher
Ger@@
draft
bri@@
32
types
download
getan
bau
official
elements
Groß@@
kurz
benötigen
Benutzer
highest
Sinne
hinter
Gemeinschafts@@
Firma
Although
immediately
Öffentlichkeit
Gründen
Transparenz
happy
reality
we@@
erwarten
Meine
Web@@
mittel
Bemühungen
poverty
ismus
got
&apos;ll
Daten@@
met
transparency
Frühstück
Berichts
conflict
avoid
goes
con
aufge@@
Ansatz
hr@@
consequences
Fehler
ther@@
ó@@
Zur
Pa@@
Centre
San@@
employees
death
ju@@
elections
0.@@
Du
sport
tionen
met@@
ke@@
Heute
bau@@
king
beyond
gelten
Präsidentschaft
eben
analysis
fine
sub
Sache
erneut
applied
friends
diejenigen
kannst
Your
tsch@@
tik@@
apartments
bel
bes@@
Personal
lives
Star
beitragen
parking
Auffassung
sofort
numerous
pres@@
geworden
processes
Druck
gefunden
ub@@
ör@@
Furthermore
train
zwei@@
solidarity
talk
daily
Te@@
tor@@
nahe
Enterprise
fre@@
Ne@@
See
review
wing
cal
Fällen
poor
Op@@
saying
persons
offering
pri@@
az@@
historic
Flughafen
requires
verhindern
pu@@
sei@@
efficiency
helpful
build
Verkehrs@@
freien
Tagesordnung
entsprechenden
head
Wel@@
Bilder
Änderung
begrüße
Juli
erungs@@
Monaten
hätten
Ti@@
Ober@@
bathroom
offered
Kor@@
morgen
Nr.
minimum
tt@@
establish
tions@@
terrorism
colleagues
ideas
lernen
ven
draw
schaft
@
sent
carry
starting
chen@@
Basis
wanted
Staats@@
и@@
Gesundheits@@
leaders
sions
gende
behandelt
Bürgern
Italien
illegal
Datei
High
Tur@@
Ju@@
Urlaub
Selbst@@
DVD
Natürlich
anders
published
practical
bur@@
IP
ler@@
stellung
kt
Schlusselwortern
Austria
implemented
expect
Restaurants
modified
While
Do
gar@@
gleich@@
paar
ständig
cut
Even
IS
Behandlung
useful
lower
75
cs
volle
ready
stimmen
berücksichtigt
anderem
EC
crucial
Republik
stands
Room
CO@@
news
Kinder@@
lic@@
mm@@
phone
transfer
wieder@@
Tat
hold
reduction
thought
weeks
OR@@
entsprechend
Tagen
Chinese
operating
player
versucht
Bal@@
secure
Fi@@
warum
Microsoft
Chi@@
hoch
frage
monitoring
reference
shopping
organisations
Directive
machine
caused
vergessen
Dateien
nisse
Ressourcen
log@@
erfolgt
tomorrow
learn
sometimes
kennen
Technologie
Ku@@
1996
Unter
sales
month
Le
erter
deutschen
31
banks
una
Br@@
gre@@
child
folgen
clients
Mittel@@
congratulate
ili@@
alone
Tre@@
besondere
comprehensive
Z
richtige
Bürgerinnen
vertreten
relating
Ser@@
Atmosphäre
schi@@
Wahl@@
enti@@
technischen
plant
Bei@@
oben
OS
Sicht
folgt
lesen
Min@@
Russian
Finanzierung
überhaupt
probably
maximum
Ha@@
changed
Den
°
zer
Konferenz
modernen
ages
ada
reichen
zahlen
scale
challenge
B.
Standard
kan
minute
sches
voting
erklärt
Fund
Go@@
Nicht
za
Gruppen
annual
options
Amendment
morning
Beginn
technologies
UK
verantwortlich
Vergangenheit
Spanien
gesehen
raum
AD@@
mountain
anything
4.@@
West@@
port
Sport@@
Gi@@
cities
ini@@
plans
son@@
wählen
häufig
gewesen
lösen
email
bre@@
street
zumindest
worldwide
Dr.
historischen
tro@@
Mag@@
ture
begin
ement
fil@@
waste
Stadt@@
Security
accordance
games
Rechtsvorschriften
app@@
ette
extent
players
ve@@
Viele
lost
äre
Flug@@
loss
Fest@@
ble
zahlreichen
erfüllen
Forschungs@@
Wochen
despite
beste
sectors
zes
interested
powers
zei@@
chance
neues
Kultur@@
erfolgreich
worked
gten
Hotel@@
farmers
FR
stelle
kam
method
amp@@
geschaffen
schützen
vollständig
Werte
ff
Aspekte
Conference
endlich
jeweiligen
scientific
erk@@
languages
Sonder@@
Herausforderungen
Is
mention
acc@@
sor@@
Erfahrungen
welches
Lassen
braucht
alte
ris@@
seines
green
accession
strategic
Pal@@
verpflichtet
Me@@
Google
Aufenthalt
eter
amerikanischen
businesses
Moreover
Zweitens
ek
bin@@
release
außerhalb
tlichen
Hei@@
ga
erwartet
Milliarden
Handels@@
methods
genug
Vertrauen
lat@@
bs
Airport
alt
Dollar
sektor
Schritte
ich@@
tlich
influence
bra@@
29
advantage
si
Inhalt
gli@@
ungsp@@
Public
Computer
gend
Prozent
tics
swimming
denken
Arbeitnehmer
garden
verb@@
Parteien
fish
sum@@
genutzt
stets
unten
hält
processing
teten
justice
Mat@@
heutigen
Adresse
trotz
Staat
innovation
mes
Free
accepted
privaten
fields
ment@@
hören
Not
abzu@@
folgenden
images
wal@@
regime
Sterne
Ben@@
walking
raised
ßen
bessere
ir
Krieg
del@@
ara
trying
selection
letzte
в@@
wert
cur@@
negative
Ireland
implement
comfort
Obwohl
trans@@
Schwierigkeiten
Dazu
Allerdings
oren
cht@@
yer
persönlichen
borders
Gen@@
demokratischen
Angelegenheiten
Thank
Einige
doubt
critical
ron@@
д@@
Angelegenheit
star@@
Folge
Vertreter
Natur@@
sechs
ology
NATO
flexible
Berichterstatterin
Fre@@
danke
sa
ier
cover
bilden
anti@@
separate
fa@@
Gegen@@
Wein@@
demands
contract
gender
Mu@@
Hinsicht
visitors
RO@@
scope
menu
join
ausschließlich
El
abge@@
Tor@@
currency
schwer
erlaubt
Gebäude
Praxis
reforms
absolutely
mor@@
Berg@@
ness
ns
overall
sted
Only
Afghanistan
Arbeitsplätze
affected
geh@@
rä@@
Grand
vollen
ast
vers@@
target
calls
intended
Opfer
medi@@
sal@@
hen
Bra@@
Einrichtung
è@@
kaum
Spieler
namely
gest@@
relationship
Video
opening
erinnern
getting
uri@@
ang@@
dung
Frieden
Neben
prä@@
tru@@
übernehmen
placed
Preis@@
cre@@
gekommen
love
Indeed
Wunsch
entscheiden
adopt
Ra@@
Station
heard
increasingly
vel@@
Falls
sec@@
ably
Denn
Col@@
zudem
More
allgemeinen
Annahme
laufen
Solidarität
hour
Jo@@
а@@
beide
Armut
ado
map
Dra@@
IM@@
²
Organisationen
Instrument
Secondly
dan@@
Gesamt@@
™
schließen
ren
Wer
administration
ots
says
union
Har@@
running
moderne
bitten
initiatives
usually
tiv@@
bewusst
barkeit
representatives
warm
generation
Zusammen@@
Ö@@
Wohn@@
syn@@
е@@
Dann
30@@
Aufgaben
qui@@
gew@@
Ihres
committed
erkennen
stärker
structural
3.@@
mission
Bur@@
yourself
Partei
maintain
darstellt
People
stress
Wi@@
Red
cra@@
expressed
India
sol@@
sage
ut
ley
born
Its
freie
Kunden@@
5.@@
traffic
tisch
globalen
Gr@@
mainly
mal@@
6.@@
rechts
Systeme
debt
suitable
Agenda
Erstens
ide@@
confidence
tal@@
Verfassung
ün@@
haus
vital
wahrscheinlich
98
erungen
infrastructure
Verpflichtungen
proper
gebiet
evening
Leute
01
Falle
offen
ical
größere
normal
ord@@
goal
begrüßen
nationale
automatisch
Kunst@@
att@@
approved
planning
Fu@@
eindeutig
signed
talking
erenden
likely
vorgeschlagen
rechte
families
EL
Win@@
Nations
ously
not@@
SP@@
Fer@@
unemployment
sign
bald
je@@
Außen@@
serve
Iraq
improved
ik
plus
Hu@@
installation
terrace
deine
tour
lung
fort@@
Anstrengungen
Asia
industrie
students
Osten
zation
Nun
gelegen
cohesion
Energie@@
Idee
rel@@
ulation
Mc@@
ha
lt
Cas@@
inn@@
powerful
reduced
freuen
tourist
Reformen
ki
began
Hel@@
competitive
correct
Wahlen
ID
whom
Zustimmung
ls
zusätzliche
mark
sting
400
Hause
Kriterien
tel
Cre@@
anischen
CH@@
Sitzung
administrative
Privat@@
š@@
circumstances
Vereinbarung
decide
entspricht
LE@@
lin
ür@@
Terrorismus
white
edi@@
benutzt
Ka@@
2020
cia
delivery
ote
gesprochen
feature
Roma
legt
War
conclusion
&apos;re
mindestens
beginnen
Costa
photo
zeiten
gan@@
ss
Karte
comments
screen
De
unbedingt
laws
Code
langen
ft@@
san@@
tation
collection
min
Verwaltung
Anerkennung
crime
income
protected
zug
genannt
financing
emissions
25@@
überzeugt
ics
Greece
Produkt
Bundes@@
automatically
covered
priorities
served
150
Protokoll
ensuring
defined
sha@@
contribute
schutz
sources
1995
gleiche
nis@@
Binnenmarkt
motion
worth
else
effectively
glauben
Vorteile
post@@
RA@@
sicherheit
Funktionen
risks
Kre@@
las
alität
Ist
played
session
electronic
gezeigt
stu@@
Nutzen
alisierung
participation
prozess
Gipfel
supports
Sektor
introduced
ars
ien
aktuelle
rei@@
understanding
unterschiedlichen
vorgelegt
ame
encourage
tät
founded
assi@@
selbstverständlich
Technologien
ai@@
positions
extensive
MP@@
speaking
....
imp@@
nachdem
Stabilität
Volk
ki@@
record
larger
deten
Produktions@@
format
victims
exist
uni@@
dringend
Medien
Pra@@
möglicherweise
Informations@@
Haushalt
gerecht
specifically
Swiss
Just
berücksichtigen
Cal@@
Inhalte
prüfen
managed
Ur@@
erwähnt
functions
Ausschuß
track
sam@@
plants
MA@@
Gro@@
senden
Val@@
south
burg
Sommer
mehreren
Produkten
erende
Durchführung
stated
pleasant
fellow
Plan
м@@
sierung
Mark@@
gte
aimed
ef@@
agriculture
US@@
99
paper
sionen
wesentlich
manner
entsprechende
tabled
Straße
Sub@@
appear
Frankfurt
ures
pan@@
wrong
dete
wünschen
Middle
Wann
opened
ga@@
tn@@
purposes
fan@@
becoming
jene
о@@
Agreement
kommenden
LA@@
verkehr
Each
entry
programs
lig@@
Sen@@
markt
Social
nis
hoffen
testen
Kunst
Mitteilung
Besuch
detailed
ack@@
bestimmt
won
limit
Zudem
hinweisen
Can@@
flo@@
nt
linked
gang
referred
animals
Dar@@
richten
bestehenden
siert
precisely
verfügbar
rural
sicherzustellen
At@@
zing
Kal@@
IL@@
discuss
Des@@
exactly
listed
wonderful
Schließlich
Bus@@
John
ET@@
Augen
nu@@
Bri@@
erfahren
akzeptieren
partnership
ität
sion@@
sitting
Über
Zunächst
Christian
95
assessment
Sea
stable
expected
police
transparent
regular
Film
optim@@
Lin@@
ants
Chance
otherwise
went
ko
Not@@
wants
arbeitet
tradition
February
represents
marketing
besonderen
Policy
á
klicken
alism
euch
Homepage
super@@
Why
http
kre@@
aktiv
Besch@@
developments
fac@@
CO2
ierung
dienen
erzielt
rent
ish
Wor@@
discussed
measure
thousands
Ban@@
getroffen
ner@@
ften
möglichen
Spa
beds
camera
finanziellen
Reise@@
Haltung
pre
votes
Board
technische
Green
Then
pe
Ausbildung
discussions
zeit@@
lig
arbeit
ral
institutional
ach
Qualitäts@@
fahr@@
notwendigen
liber@@
budgetary
sized
operations
ration
Sti@@
client
zuletzt
Einfluss
Suche
medical
gef@@
sufficient
introduction
enterprises
selected
benutzen
wo@@
Vol@@
darunter
Einrichtungen
Wettbewerbsfähigkeit
broad
siehe
rü@@
trägt
metres
gelegt
bedarf
earlier
Rec@@
2011
Fl@@
umgesetzt
laden
Lan@@
Economic
stat@@
fresh
Human
Kan@@
warten
Medi@@
Kontakt
followed
stoffe
teil@@
Tro@@
Produkt@@
Vo@@
elt
ass
ologie
ce@@
politischer
shop
spend
Zei@@
Bre@@
Anwendungen
ungs
yp@@
inside
facing
erfüllt
playing
Pri@@
buy
stand@@
Irak
wenden
Zeichen
anderes
geändert
represent
leg@@
immigration
dient
stock
teil
Standards
houses
elles
Monate
ergreifen
kitchen
Best
nor@@
Open
strengthen
closely
shi@@
vermeiden
festgelegt
endes
gener@@
schreiben
guidelines
achten
path
ged
Kindern
exclusive
pat@@
connected
у@@
networks
supporting
fs
Anspruch
Vertrags
rein@@
ill@@
Ü@@
34
Bild@@
improving
Apartments
Ca@@
od@@
außer
winter
discrimination
She
rat@@
Switzerland
happen
buildings
degree
bro@@
unbe@@
pra@@
verfolgen
cally
considerable
save
Kern@@
Stand
stärken
stimme
spacious
dan
Familien
Kat@@
losen
ory
enz
acts
Unterkategorien
stone
7.@@
Test@@
voller
Vereinten
person@@
Ste@@
Rooms
wären
Innovation
к@@
Schutz@@
Fe@@
erhöhen
MS
Auto
elegant
schaften
Sol@@
beziehen
speech
Pan@@
thinking
Most
Meter
oni@@
Sh@@
average
Vielfalt
reich@@
jo@@
win
Menschenrechts@@
PT
season
eingerichtet
door
stadt
handeln
dec@@
teilweise
remember
Research
Czech
God
sicherlich
Comp@@
Gel@@
shower
entweder
fun
His
Tier@@
Char@@
äu@@
seem
tourism
shops
ase
rat
Menge
ban
Mitte
36
Klein@@
jederzeit
Konzept
gem
stellte
Wege
Stimme
erzielen
Wer@@
jeweils
duty
Schul@@
welcher
entschieden
purchase
select
telephone
ai
geeignet
provision
Anti@@
Leistungen
Name
tw@@
hear
id@@
politics
Pu@@
ice
Air
ella
ye
zen@@
dri@@
Schweiz
gave
ona
experts
nahme
core
fällt
SA@@
presence
oc@@
ckt
Großbritannien
spirit
UR@@
tin
97
kom@@
sagt
fri@@
Ski@@
Familien@@
fied
Pol@@
tik
bodies
Im@@
hot
prior
wider@@
domestic
wood
Instrumente
Poland
stes
gelangen
pol@@
Modell
Golf
trust
spielt
Februar
Kenntnis
properly
components
Veränderungen
Tätigkeit
Transport
dic@@
typical
cker
ear@@
win@@
--
entirely
Forderung
authority
char@@
z.
competitiveness
Ausgaben
verbessert
Abschluss
generally
com
Webseite
klare
reg@@
cards
48
pul@@
lands
erg@@
funktioniert
Verwaltungs@@
feld
Street
Brussels
monetary
fla@@
länder
Initiativen
poli@@
ti
besuchen
suggest
lungen
presidency
animal
werte
zo@@
,@@
difference
Sprachen
ty@@
dé@@
reception
cuisine
coordination
element
advanced
Download
erleben
character
items
Arbeiten
neu@@
refer
Because
angezeigt
Gal@@
Berichte
summit
fisheries
richtigen
blo@@
gn@@
actual
IN
Forum
stein
reasonable
fun@@
dro@@
hor@@
aff@@
vorgesehen
Dec@@
Installation
ently
96
lichem
ausdrücklich
dealing
economies
Super@@
Garten
Abschließend
Fo@@
Zeiten
Währung
hu@@
übernachten
PL
Teile
rit@@
Fonds
Met@@
aren
chs
Unfortunately
bal@@
Jetzt
zy@@
Great
parliamentary
coffee
Regelung
difficulties
cap@@
Hor@@
durchaus
relate
fixed
establishment
Warum
daten
betonen
wollte
Status
ay
DI@@
Fra@@
ath@@
ws
lich@@
appears
display
37
informed
Vergleich
condition
Leider
Mitgliedstaat
meetings
Mac@@
isch@@
gewinnen
vehicles
mittel@@
brand
hands
ISO
Engagement
Herausforderung
gs@@
machines
ination
Dienste
beschlossen
ll
becomes
bedingungen
speziell
permanent
flow
dagegen
ring
Kingdom
lokalen
fire
consideration
flexibility
л@@
Prä@@
origin
Abgeordnete
Afrika
ы@@
möglichst
Click
peaceful
vision
informieren
Mer@@
schutz@@
numbers
Bor@@
According
erstellt
rich@@
nte
threat
Luft@@
band
gefordert
told
experienced
failure
Zeitraum
med
wenigen
és
ours
bet@@
ato
Besucher
Shi@@
Post@@
Angaben
practices
Gebieten
district
zentrale
kulturellen
Jahrhunderts
onen
EADS
ingen
attempt
fahrt
applies
dank
combat
estate
ordnung
Once
sta
gem@@
suite
Sport
fund
Trans@@
täglich
konkrete
Ä@@
fying
Pas@@
ships
exp@@
ei
Cam@@
finanzielle
Plat@@
vorhanden
middle
ker@@
führte
cking
ey
gabe
hol@@
resort
structures
continued
darstellen
cy@@
picture
leader
stan@@
erklären
himself
acht
etc.
weight
Vielen
64
bil@@
promoting
Kirche
33
Stil
Nord@@
konzentrieren
Komfort
usw.
Wissen
ri
Madrid
Trade
back@@
aims
cal@@
starke
ched
09
zentrum
easier
Plan@@
Hauses
Breakfast
angeboten
Österreich
spent
cher@@
voice
courses
veröffentlicht
gewährleistet
glich
Worte
betrachtet
Beitritt
entstehen
Zeit@@
finance
1994
Programms
models
arten
führenden
Health
associated
08
ungs-
Sur@@
Tour
unabhängig
propose
sters
Zweck
art@@
tage
erfolgen
cat@@
ash@@
tätig
Analyse
aspect
haft
benötigt
erscheint
forget
myself
database
nächste
Santa
Rede
anyone
reducing
3D
EM@@
Griechenland
Dennoch
Forderungen
ig
Association
Werk@@
lö@@
seriously
Einigung
buffet
dennoch
Wieder@@
einiger
translation
Zweifel
opposition
lo
club
freue
folgende
ning
gruppe
off@@
Pakistan
vari@@
phase
steigen
ancient
Bro@@
Angesichts
Herstellung
Casino
Aufnahme
2013
geschrieben
Bush
Saint
fähigkeit
ahead
trip
24@@
gain
Antrag
defence
MO@@
differences
tures
Prime
ack
Mess@@
humanitarian
evidence
Klicken
Achtung
combination
Cap@@
Geld@@
amen
uner@@
schwierig
SE@@
Last
impossible
mü@@
tional
grounds
8.@@
north
welt
shared
Einhaltung
cl@@
tt
Stellungnahme
studies
consumption
ingly
spiel@@
dre@@
unterschiedliche
election
Best@@
sets
detail
SI@@
erstellen
dlich
ved
dangerous
Stra@@
immediate
gene
Private
lä@@
ark@@
Terrasse
implementing
black
Universität
gestalten
regionalen
AM@@
han@@
bor@@
changing
Kom@@
producers
happened
Gas@@
museum
Sam@@
Klima@@
ertes
ely
ian
announced
Mio.
essen
ße
adoption
Ja
rück@@
ID@@
agencies
geschehen
ON@@
African
inen
heiten
ländern
umfasst
sun
AL
fel@@
fiscal
England
ME@@
criminal
nation
attractive
Belarus
heraus@@
spending
air@@
relax
regi@@
Ph@@
т@@
balanced
schönen
concrete
learning
names
Mann
released
campaign
Regel
Druck@@
article
asi@@
statements
carefully
cke
Q
•
halt
eingehen
absolut
ational
instance
ener
Dem@@
elected
ée
gegründet
ON
Musik@@
recognition
Irish
diskutieren
respond
chi@@
iger
Pro
Schengen
geleistet
described
truly
pla@@
Paket
trading
All@@
calling
sse
PHP
Stärkung
ante
reservation
television
eli@@
Nachfolgend
cars
Prioritäten
beaches
Lesung
55
Justice
Europeans
architecture
Sorge
Arbeitslosigkeit
Gemeinsamen
tä@@
raise
Hintergrund
Polen
liebe
DA@@
profitieren
Indien
genuine
verfolgt
availability
mark@@
Entwicklungen
digen
The@@
07
ire
Tran@@
charged
ery
Liefer@@
river
läuft
glichen
ero@@
ine@@
exhibition
kaufen
territory
Dan@@
600
Check
advance
guarantees
arrival
Abend
ong
introduce
CA@@
Stellen
inform
Kommunikation
Firstly
zimmer
gers
work@@
skills
net@@
Fischerei@@
Texte
Del@@
booking
membership
Sehr
Arten
Comm@@
sides
ca@@
Gesetz
improvement
Gleichzeitig
einander
Sehenswürdigkeiten
Vielzahl
Bas@@
Da@@
ion
ica
Banken
religious
Rechnung
deep
Aspekt
wel@@
anlagen
lets
Links
ple@@
tens
ca.
Dokument
Fuß
Seine
rop@@
hervor@@
mas@@
verlassen
feststellen
amm@@
yang
Voll@@
seek
unless
Hersteller
ological
continues
übrigen
dad
break
Formen
Partnerschaft
passed
color
spricht
ins@@
Kl@@
и
fear
bezeichnet
felt
Foundation
800
registered
les@@
Turkish
französischen
garantiert
Tel@@
werke
PS
miteinander
Pap@@
pictures
Federal
Democrats
fordert
sort
court
meters
sale
Moment
figures
Home
ot
Nacht
greatest
chan@@
allowing
Syn@@
Problemen
hab@@
PDF
weiterer
val@@
possibilities
ba
combined
sichern
ole
export
Titel
PO@@
wishes
insurance
Beg@@
firm
desire
tz
button
persönlich
überprüfen
lie
recommend
Guest
Grenz@@
obtain
gegenwärtig
gent@@
kur@@
seite
Ideen
Due
Every
unacceptable
eingeführt
Sinn
tig@@
USB
demokratische
hingewiesen
relaxing
gegenwärtigen
participate
definition
pos@@
kept
tsp@@
Ki@@
Hamburg
Hol@@
mag
ware
anten
fol@@
reliable
Festival
sensitive
Wal@@
strongly
zz@@
closer
nearby
bes
claims
lige
Globalisierung
completed
forced
Dom@@
Elemente
AB@@
greifen
failed
Richtlinien
Barroso
Kritik
zeichnet
Such
ov@@
manage
tasks
installed
Haup@@
Überwachung
2,@@
uli@@
Gast@@
zeichen
s.@@
My@@
devices
Leistung
science
unfortunately
Internet@@
Bedürfnisse
kosten@@
sli@@
Tradition
packages
Deutsche
Michael
gutes
Greek
cli@@
positiv
danach
groß
Anteil
SO@@
fle@@
Ziel@@
absolute
überall
fication
Märkte
Far@@
angesprochen
Irland
enables
ined
asylum
Gott
ick
unto
Manager
LO@@
corporate
surface
Hal@@
erhält
Vienna
Betrieb
write
einsetzen
wagen
surrounding
para
establishing
9.@@
empfehlen
zufrieden
Very
individuals
Bewertung
institution
1990
contain
tiges
flu@@
Hin@@
signal
Verhältnis
ists
foot
entitled
Verpflichtung
Priorität
bear
bars
Fortschritt
beginnt
Multi@@
coast
tives
erforderlichen
compared
ands
platform
square
Rad@@
ink@@
alismus
größeren
tests
Brüssel
umfassende
Regelungen
enormous
Obama
TH@@
guide
Player
Beschreibung
piece
sieren
III
50@@
Geb@@
etz@@
sämtliche
punkt
perspective
dedicated
ausreichend
Entwurf
Eastern
beauty
gri@@
п@@
Agrar@@
rus@@
beteiligt
initial
wind
Beschäftigungs@@
exercise
End@@
bestätigt
sem@@
ata
Another
port@@
keinerlei
geschützt
aufmerksam
Politiker
plan@@
attractions
großes
listen
story
Technik
inf@@
window
cm
ku@@
Ter@@
Ob@@
ink
nennen
besitzt
weapons
drawn
moving
Rot@@
Geschäftsordnung
biggest
vorliegenden
britischen
Spezi@@
sun@@
Prinzip
wahr@@
tal
einfache
cul@@
igen
sonst
länger
host
ehr@@
Verkehr
ay@@
Worten
unterstütze
route
multi@@
Poli@@
internationaler
urgent
ends
factors
sation
Energi@@
Gesch@@
storage
Pat@@
tere
komplett
Em@@
Ara@@
Yet
disease
Institute
Mitteln
Unternehmens@@
advertising
offensichtlich
extended
Größe
church
werk@@
Mis@@
stic
convinced
accessible
rufen
PPE
interface
controls
Company
Generation
Jeder
ständigen
Regulation
Res@@
spezielle
attack
books
unver@@
organization
Ei@@
mittels
memory
mass
kraft
totally
Data
oh@@
Can
holidays
verbundenen
flight
Agentur
gruppen
Maße
nissen
Meiner
comment
Star@@
Beteiligung
lar@@
starken
contrary
Ren@@
Austrian
Foreign
device
granted
Netherlands
luxury
Innen@@
Studio
Peter
Latin
gelöst
minister
railway
wil@@
unable
65
print
bath
Absatz
vers
wunder@@
ater
Gründe
dienst
Wa@@
mag@@
bahn
Bus
Media
Start
Risiken
tried
č@@
existence
sat@@
massive
fern
stattfinden
Monat
outcome
indi@@
Durch@@
payments
organised
tar@@
Mas@@
Men@@
Nevertheless
install
Mel@@
schlagen
wesentlichen
Control
kers
Kenn@@
bekannten
hergestellt
straße
Treffen
mögliche
garantieren
betrachten
reisen
politisch
limits
ka@@
wirken
deutsche
führ@@
ths
claim
engine
analy@@
Nieder@@
ane
zählen
laid
plat@@
Ap@@
saw
solcher
satz
Umfang
advice
conclusions
hel@@
Lake
THE
alo@@
übertragen
iel@@
Niveau
schöne
discover
commitments
Reise
chosen
fälle
haften
Palestinian
zuvor
Inn
Paul
neither
candidate
län@@
d.
intervention
tical
Volks@@
stehenden
beinhaltet
ester
rau@@
expensive
ate@@
0,@@
wn
ular
verloren
paragraph
cas@@
chs@@
lag
dig@@
Erde
rechten
maintenance
Constitution
Europäer
sell
zusätzlich
kostenlos
dliche
Aktionen
Patienten
title
Gegensatz
42
zung
gkeit
Öl@@
relativ
Uni@@
testing
dom@@
fte
sischen
perfectly
zw@@
Pe@@
Bildungs@@
Erklärungen
Sta@@
update
wider
1992
artists
background
Altstadt
USS
spiel
promotion
entsprechen
rightly
Risiko
asking
leistungs@@
jüngsten
ige
agency
Han@@
expression
Fotos
staatlichen
seven
fit
yst@@
ambitious
rechtlichen
gegangen
achieving
fi
mountains
lake
Gebiete
Unterkunft
Ereignisse
Ost@@
Palace
Methode
05
obligations
fall@@
wall
remind
multi
Thus
Fin@@
Phase
Mitgliedern
nationaler
Entschließungsantrag
older
Support
independence
200@@
Führung
stor@@
Begriff
daraus
race
eigen@@
targets
Bank@@
komm@@
atic
Aufbau
49
decades
Botschaft
touch
continuing
Flexibilität
valid
spar@@
spor@@
Kompromiss
Eindruck
deliver
ç@@
sia
ersch@@
vehicle
Resort
eck
Sil@@
Ã
successfully
rep@@
Versch@@
wasser@@
finde
Hoffnung
produktion
gehalten
ola
nah@@
Option
Mand@@
obviously
honourable
globale
Realität
dungen
resi@@
Wirkung
Eigen@@
fort
istischen
category
е
Verständnis
Netzwerk
inform@@
uren
register
Infrastruktur
Nachdem
Card
na@@
pal@@
н@@
speziellen
equality
goals
Market
IR@@
furnished
manchmal
cou@@
jungen
h.
Empfehlungen
bildung
enst@@
monitor
constantly
stal@@
berei@@
abgeschlossen
hauptsächlich
Is@@
erhöht
utili@@
Are
As@@
Energy
tic@@
contained
olo@@
verk@@
ischem
Aussicht
capable
Zwei@@
erfordert
physical
trag@@
convenient
lungs@@
unit
governance
reicht
ching
Motor@@
schafts@@
species
Bis
38
seeking
Agency
m2
someone
Schlüssel@@
Sar@@
Betriebs@@
Hon@@
Note
cri@@
і@@
dynamic
mid
cho@@
nearly
keeping
Global
bul@@
Firmen
setzung
enk@@
approximately
reden
genen
colleague
guter
allgemeine
ised
hon@@
Inseln
bringing
damals
Gre@@
Korea
bt
Cro@@
Grundsatz
operate
communities
Meeres@@
situations
factor
surrounded
Mus@@
Teilen
stations
Anlagen
obvious
ee
System@@
informiert
Weitere
outstanding
Rome
tly
aci@@
rapid
hom@@
Nutzer
AG@@
contents
planned
yesterday
recovery
Time
Hi@@
fy
satellite
.de
substantial
far@@
expenditure
pointed
einerseits
Beach
fung
merely
qualified
aircraft
Rezeption
bern
Zahlungs@@
soft
zugleich
ECU
arms
putting
advantages
Tu@@
Beihilfen
dimension
glass
store
Beim
fühlen
Hälfte
edge
einzigen
ierte
ING
wirtschaft
GDP
geöffnet
prevention
Fraktionen
meaning
standing
39
binding
legung
nachhaltige
ther
Net@@
Eing@@
gebaut
recommendations
berühmten
Those
&apos;ve
Sprach@@
object
gets
stei@@
Grunde
Gegenteil
Voraussetzungen
geschieht
führer
Martin
cer@@
intensive
dy@@
Located
named
wichtigste
A5
origin@@
eng
ising
ports
waiting
einverstanden
smaller
fuel
ol
85
sky
vit@@
aufen
nung
Internationalen
Mil@@
Dimension
sur
ausschuss
ables
ue
looks
aries
leads
participants
Alliance
Buch
photos
festgestellt
fach@@
wodurch
Environment
manufacturing
turned
ideale
jährlich
Friedens@@
tigkeit
Sec@@
resulting
attacks
mechanism
EG
cy
persönliche
trifft
consistent
Hinweis
Bahnhof
Haus@@
Gei@@
contemporary
physi@@
Städte
beachten
causes
lang@@
istische
Summit
Other
xi@@
echte
betroffen
Kr@@
sobald
Winter
stabili@@
ena
landscape
IA
bert
consists
vous
bewegen
guaranteed
tag
Ebenso
mut@@
regelmäßig
orders
regeln
extend
Both
AS
ward
Vorteil
Süd@@
compliance
determined
06
vorgeschlagenen
radio
unden
Königreich
Prüfung
Ausland
1993
fal@@
van@@
identity
praktisch
disposal
primary
Unabhängigkeit
sy@@
Vertrags@@
strengthening
ming
spread
betroffenen
lie@@
log
kte
Square
Vom
Bedarf
Royal
anda
Amerika
trä@@
ath
dos
Hauptstadt
oll@@
kes
Bahn
mode
registration
Fol@@
ering
hafte
\
Live
Wettbewerbs@@
Erhöhung
bit@@
bauen
acceptable
02
alised
spa
Dienst
thereby
driving
stoff
ran
traditionellen
oral
Island
Rules
Bestandteil
responsibilities
angeht
kor@@
flü@@
karte
ED@@
Sweden
extreme
loc@@
inv@@
ik@@
Fran@@
Teil@@
wait
urban
lia
examples
stellungen
block
Landschaft
ett
tend
Männer
junge
brings
browser
Putin
Bürger@@
Liberalisierung
vier@@
adequate
association
conclude
Fähigkeit
welchen
forest
Zahlen
multiple
Any
golf
consensus
Pool
eiten
Bewegung
Struktur
by@@
gewählt
andererseits
besseren
nations
frei@@
u.
anbieten
schneller
clo@@
Winter@@
beschäftigt
Veranstaltungen
woh@@
industries
Tages@@
19.
Charakter
explain
las@@
nden
.00
ré@@
fes@@
treated
asse
bers
strategie
Gesetzgebung
fand
wealth
sum
mem@@
eth@@
patients
addressed
ended
versions
dor@@
Material
sam
Unternehmens
Financial
Welche
б@@
ст@@
Farben
vollkommen
kar@@
Maria
Trotz
früher
pleasure
serves
temporary
Licht
spec@@
Ruhe
copy
Lau@@
43
smoking
entwicklung
fällen
schools
kürzlich
ping
my@@
reagieren
160
gesellschaft
JavaScript
Kontroll@@
Auto@@
Überprüfung
Klimaanlage
begann
ita
weiteres
investments
vorschlagen
dest@@
spezifischen
previously
lan
assen
Zi@@
primarily
03
Dutch
diversity
250
quick
notice
wh@@
Indi@@
Ordnung
Laufe
down@@
Nice
refugees
Methoden
dly
Ratspräsident
Aufgrund
í
esen
Details
kten
minim@@
Kraft@@
Serie
Klimawandel
entered
Waren
spaces
Reaktion
fläche
Wil@@
Angebote
Diskriminierung
Koordinierung
leadership
talks
Thanks
Mindest@@
Link
PR@@
herzlich
Two
liability
Day
gol@@
Grenze
eds
representative
evaluation
diskutiert
wa
willing
IG@@
Format
zählt
marked
Absch@@
kinds
Bio@@
Rom@@
Farb@@
mehr@@
bezieht
delay
steel
Trek
Anpassung
optimal
Kol@@
requested
tter
seitens
letter
remove
liefern
stoff@@
Emp@@
vis@@
Westen
Versuch
Romania
Poker
accounts
quote
ically
National@@
tenden
Liebe
ppen
taste
Fa@@
abhängig
Holz@@
pension
Sc@@
gone
explo@@
technological
barer
discussing
stimmt
gezogen
Jean
Rau@@
Zimmern
Lam@@
bas@@
cent@@
Nu@@
ly@@
intensi@@
Bet@@
sten@@
Pf@@
Teilnehmer
rail
Flash
profit
bedroom
pas@@
leiden
betont
conduct
User
Fälle
Willen
Sonnen@@
fen@@
onto
mil@@
positiven
Pic@@
ón
Reg@@
regionale
IF@@
vern@@
delivered
Mehr
Telefon
ländlichen
einzelne
opposite
Despite
demo@@
Off@@
Sel@@
controlled
ap
fruit
Gefühl
verlieren
author
southern
preis
arbei@@
Roman
schön
web@@
umwelt@@
tain
int
Ansch@@
akzeptiert
Beh@@
bildet
Vil@@
cies
Dor@@
e.@@
Ther@@
sanctions
ari
prepare
visible
Ir@@
eins
skin
Express
represented
Mau@@
44
feeling
Gesetze
White
competence
adi@@
seien
pour
nten
q
Fisch@@
Gästen
Ci@@
Einklang
Freunde
affect
audio
forum
Stadtzentrum
dritten
Via
ül@@
Strategien
ous@@
dat@@
Innen
dealt
ehemaligen
Shop
Prin@@
Dokumente
yes
approval
Industri@@
р@@
ergeben
mechanisms
zunehmend
äl@@
ziert
vielmehr
weltweiten
Rotary
ala
Körper
wards
alter
verstärkt
Unterschiede
Regierungs@@
spezifische
pen
Kri@@
Vorbereitung
ard@@
Tiere
Umständen
en-
Rel@@
Sha@@
TR@@
Enjoy
length
default
ero
Kombination
Suite
übernommen
Stunde
Spiele
Sanktionen
Na@@
shape
parti@@
Zustand
moved
sicherstellen
urge
Studie
aj@@
Teilnahme
David
ual
significantly
Stu@@
Lehr@@
ligen
41
diverse
Prodi
strength
oni
Britain
sian
Tod
amongst
amerikanische
wiederum
mutual
bequem
dig
liste
eye
launched
Tatsächlich
speakers
helping
exc@@
Geist
gewisse
cle@@
runs
Ster@@
AU@@
Delegation
Wien
manufacturers
noise
Gold
squ@@
acting
WC
mach@@
nochmals
derzeitigen
PL@@
presentation
Aqu@@
lim@@
drugs
nom@@
Anliegen
bericht
Süden
Kapital@@
sign@@
alle@@
except
rejected
relatively
def@@
Munich
zt
haltung
Diskussionen
Berücksichtigung
destination
hinter@@
26@@
zustimmen
unk@@
conditioning
2.
soweit
verlangen
highlight
Militär@@
knows
nötig
behörden
breite
sh
Wider@@
consultation
Schule
sho@@
Open@@
latter
che@@
ni
Lord
Raum@@
Dadurch
Grundrechte
elling
gens
Fern@@
tis
basiert
cing
Before
taxes
lots
sold
höchste
rin@@
gestern
improvements
Bedenken
Minutes
Tex@@
Kyoto
ania
Java
expectations
Sor@@
ced
sieben
ED
delegation
tau@@
Eigenschaften
ord
BIP
engineering
boat
OT@@
Test
fr@@
expertise
don@@
Jahres@@
erei
keiner
ön@@
faced
heavy
recommended
attitude
politicians
Wegen
Back@@
dir
Ges@@
ausschusses
Schäden
obligation
western
Vielleicht
kul@@
Kunde
umfassenden
arch@@
cont@@
Definition
micro@@
tritt
locations
finding
experiences
error
zufolge
High@@
Pres@@
truth
Anlage
unternommen
Such@@
Doppel@@
Pen@@
Untersuchung
Post
Bat@@
anerkannt
water@@
trau@@
höhere
werfen
Kollege
Freude
eight
acy
reply
ress
ello
covers
kat@@
Mein
Übereinkommen
compensation
Atom@@
Tal@@
sper@@
Voraussetzung
trees
20.
requests
fic@@
з@@
serviert
wan@@
dia
1000
Architektur
appeal
aro@@
president
historische
Bau
privacy
asing
fighting
befassen
streets
trotzdem
erer
konkreten
enter@@
Book
Allgemeinen
respective
aktive
Lebens
ativen
burden
ited
articles
beg@@
genauso
helps
kt@@
info
row
websites
charming
Find
,00
solve
Effizienz
ghts
äch@@
heraus
behandeln
ining
elled
Tr@@
tigt
Grundsätze
120
Verhalten
betreffen
discovered
gegen@@
dienste
Antworten
units
fill
emphasis
mobili@@
ände
figure
Lebensmittel@@
texts
reich
equ@@
arrangements
Verträge
ett@@
Verfügbarkeit
menschlichen
ambi@@
Wirtschafts-
AND
gelungen
spot
bedrooms
Sitz
resolve
lay
gespielt
reflect
Schi@@
hoher
suffering
jemand
wichtiges
drawing
extension
Technology
Ob
master
mi
Projekt@@
ez
west
River
Straßen@@
Wahrheit
regret
Apartment
47
centres
Datenbank
niemand
ativ
helped
temperature
Liber@@
Fenster
1991
esses
Leitlinien
producing
Küste
28@@
sions@@
kleiner
exists
constant
vo
recognise
hilft
disaster
whatever
Take
Foto
cent
700
furniture
intention
Chamber
omm@@
Rechts
wesen
walls
Nachfrage
qualität
mei@@
Völker
Karten
bon@@
Plaza
ros
dlichen
ills
head@@
blue
dem@@
cheap
Verbrechen
applicable
bild
largely
cycle
comply
Paper
healthy
ierten
Zugriff
S.@@
Kind
dinner
dishes
dans
ffen
italienischen
Fischerei
ok
Airbus
ziemlich
wed
1989
Auftrag
zus@@
ared
tern@@
tut
staatliche
emphasise
21.
danger
mobility
pping
holding
affairs
Formular
27@@
gsten
formen
operators
arian
sofern
proof
mitten
04
51
Fort@@
lauf@@
rem@@
entwickelten
Robert
watch
Klima
diseases
parallel
xes
staaten
schul@@
Werk
alisation
kal@@
substances
kulturelle
sorgt
sle@@
Dublin
10.@@
etten
schätzen
Kauf@@
objects
Letz@@
а
Buch@@
preis@@
School
mäßig
Kategorie
schließt
millions
inzwischen
erscheinen
abkommen
Rob@@
wissenschaftlichen
friend
handling
fail
appreciate
George
preise
dge
ani
Top
deiner
ble@@
tou@@
schicken
Japanese
IC
AV@@
output
happens
fantastic
Sach@@
ain
officials
seh@@
Entwicklungsländern
cold
fonds
reserve
produkte
ruhigen
Schaden
load
Flu@@
Empfehlung
Nahen
Absicht
ama
Welcome
Maßnahme
Use
TO
hilfe
führende
Old
spring
tiv
renewable
best@@
dining
grundlegenden
sla@@
Skype
Experten
confirmed
gliche
involving
tte
fraud
emb@@
naturally
command
posi@@
pose
nit@@
beträgt
Sek@@
ads
Ohne
künftig
profile
Menschen@@
Gedanken
mitteln
ando
tours
sou@@
wesentliche
Safety
Standard@@
begonnen
Materialien
46
ken@@
personally
marks
öh@@
öl@@
album
fähig
chain
Ministers
SA
willkommen
Instead
GB
Norden
RO
entlang
whilst
Special
recognised
creative
Sand@@
erin
Erwartungen
father
dates
aden
valuable
waters
aussch@@
reaching
Waffen
Charter
MySQL
2012
cam@@
kurzem
Pop@@
weg@@
harmon@@
Mak@@
OR
Angriff
Landwirte
opposed
Beifall
exclusively
ately
ł@@
pass@@
zusätzlichen
entdecken
Strategy
peoples
reali@@
Rule
laut
assist
leaving
entertainment
Regi@@
erhältlich
eröffnet
Spe@@
Alternative
rasch
east
ards
Essen
buchen
ständige
angemessen
criticism
Bl@@
Mikro@@
Where
NL
sicht
tierung
e.g.
fein@@
Mehr@@
eigenes
volume
spek@@
Fernseh@@
natürlichen
ze@@
zentralen
fies
näher
ernst
zieht
sin@@
organizations
lebens@@
Bru@@
Berufs@@
charges
Anfragen
tur
dige
cel@@
Kra@@
Swedish
Camp@@
manager
86
deb@@
imm@@
PA
Spar@@
kol@@
schwierigen
determine
Dort
ome
lieb@@
Mittelpunkt
outdoor
couple
USD
gefördert
Industrie@@
interessiert
Regime
elten
mandate
flat
SC@@
bestand
fli@@
verändert
kämpfen
Wirklichkeit
los@@
dorf
Ambiente
ening
dungs@@
Schweden
firstly
Action
Ferner
03@@
stellten
Netz@@
residence
Tagung
protecting
52
Los
München
Leistungs@@
val
mb@@
Revolution
castle
bike
erheblich
amounts
treaty
allgemein
automatic
Tourismus
denk@@
hängt
Normen
zweifellos
equally
.000
Englisch
anische
bezug
hit
prove
uss
leisure
niemals
Weiter@@
westlichen
maschinen
involvement
ered
unmittelbar
Einstellung
entgegen@@
disp@@
bli@@
constructive
increases
Front
sexual
Klasse
besitzen
ú@@
obtained
pot@@
Video@@
Vision
bedeuten
atoren
ries
exceptional
getragen
sauna
tierten
pieces
Canada
mt
schönsten
fran@@
ñ@@
King
fassen
chinesischen
Over
offen@@
ele
combating
impressive
weather
hostels
Boden
tiven
ght
journey
strategies
carbon
Good
Beispiele
grundlegende
Verbesserungen
perform
sprache
ticket
offenen
GNU
Strukturen
stance
stehende
offices
died
stro@@
Van
zuerst
sätze
Bay
seeing
collective
Band
Nicht@@
pun@@
fore@@
tom@@
Bahn@@
berechtigt
passengers
Real
meat
tten
meist
read@@
Verkauf
unge@@
enth@@
communications
oo@@
öffnen
Beratung
directives
nahm
parents
removed
fee
Einkaufs@@
Hau@@
Unterschied
Agrarpolitik
anlage
entstanden
migration
wasser
Marketing
awareness
mus
Lag@@
A4
teilnehmen
eyes
issued
ny
installiert
password
zig
Fil@@
neuesten
maintained
tenen
opp@@
EF@@
hervorragende
Cat@@
contributions
define
ball
verlangt
hof
TS
Air@@
spanischen
aufzunehmen
weshalb
proved
Mö@@
Krankheiten
derartige
happening
.....
freundlich
scht
Badezimmer
ó
erweitert
bing
ater@@
Life
Kno@@
Rich@@
newly
St
ela
u.a.
72
ausgezeichnete
höchsten
cru@@
kostet
cable
restrictions
rein
repeat
remaining
bek@@
Music
Angst
Gener@@
organized
een
amb@@
abroad
bemüht
IB@@
rech@@
alist
spezi@@
inflation
behörde
colour
LE
finished
behalten
är
launch
vast
rad
blog
doors
Maschinen
schnelle
einfachen
hau@@
urs
contracts
Non
parks
decorated
depends
yl@@
täts@@
Geh@@
musste
Nutz@@
umzusetzen
bedeut@@
Fri@@
Their
worse
hren
Monetary
Croatia
EU@@
Quali@@
entscheidend
weist
Steuern
wirtschaftlicher
vorzu@@
betreffenden
occasion
J
ursprünglichen
Abkommens
miss@@
defend
SS
tickets
anstatt
owner
Überzeugung
requirement
ought
markt@@
stoffen
preparation
räume
organisiert
Luxembourg
Problems
kurze
teilt
Ladies
Arab
reserves
counter
drink
lovely
bre
weisung
falsch
Pflicht
dritte
derung
Stellung
doesn
ausgezeichneten
regulatory
rapporteurs
continent
divided
Ware
Gri@@
eding
eck@@
verursacht
nam@@
nation@@
creates
UNO
li
Ratsvorsitz
Mitgliedschaft
cutting
debates
Kin@@
hall
iten
Ausstattung
Bucht
Zoll@@
produziert
Künstler
schafft
resolved
Polish
Black
discharge
Mac
Kamera
Bulgaria
TO@@
höher
brief
präsentiert
COM
liberalisation
Oper@@
connections
atischen
identify
returned
ye@@
lec@@
Dusche
zugänglich
Websites
atory
starten
Ab
gener
Emissionen
Hafen
wirksam
Fähigkeiten
derer
Gleich@@
focused
investors
eff@@
Aussch@@
lautet
Verbindungen
zurückzu@@
abgelehnt
Dem
Zentral@@
Kooperation
freiheit
bekämpfen
i.e.
ron
bot@@
Dorf
characteristics
roads
pers
signs
Under
Washington
Komp@@
ethnic
iler
kenn@@
oten
Anbieter
Kosten@@
Handel@@
vieler
blood
Kommunikations@@
sz@@
Punkten
q@@
balcony
Bil@@
ques
Radio
Nein
conflicts
opinions
owners
assure
Thomas
pfen
facts
IV
ky
68
etzen
künftigen
Marina
verstanden
visa
ecken
Executive
classic
messages
hardware
Ausgangspunkt
Kann
renovated
wünsche
Eltern
rati@@
Bon@@
emerging
precise
Projekten
Strukturfonds
resolutions
welt@@
soci@@
Stein@@
durchzuführen
Entwicklungsländer
understood
conc@@
Mensch
Second
tierte
stände
hundreds
Award
übernimmt
Konflikt
Bestellung
riesigen
joined
erlauben
sight
Vit@@
BO@@
funktionieren
Geräte
Harmonisierung
Übereinstimmung
Alter
aktivieren
Mad@@
vorgenommen
Stand@@
termin@@
extrem
regularly
Mach@@
Get
Jedes
Tom@@
surroundings
Gebrauch
tene
ham@@
sk
ises
Power
Ausnahme
ßt
aufgefordert
vollständige
ong@@
systemen
Luft
involve
Eu@@
tlicher
facilitate
universal
definitely
Reform@@
enzen
.org
teren
Tisch
recommendation
11.
Netz
Institution
Pil@@
ergriffen
Des
tigung
faster
bereiche
verschiedener
Verhandlungs@@
CE
nachhaltigen
conducted
tende
grün@@
echten
ultimately
Mich@@
din@@
Beweis
audi@@
operational
Den@@
rock
license
Erholung
award
realistic
ute
nights
Hostelsclub
sichere
OF
sup@@
Kopf
jährigen
gratulieren
Festlegung
sole
bridge
wachsen
frequently
performed
0.000
frag@@
driver
Austausch
iti@@
Hall
ont
prec@@
Wohl@@
seat
KMU
ader
Box
Hinter@@
technik
komme
customs
wirk@@
maschine
isi@@
wers
let@@
mar
sehe
Rumänien
atives
mini
properties
Abschnitt
Hil@@
impression
topic
rap@@
Park@@
NI
schau@@
Gentoo
Straßen
grow
MEPs
Lim@@
Fi
¤
bezahlen
beschränkt
transportation
intend
ê@@
psych@@
Las
Arbeitsplätzen
gold
Partnern
Film@@
zugunsten
publi@@
Power@@
klaren
mental
ministers
welfare
deals
Gestaltung
Ratspräsidentschaft
grant
Mexico
uting
Vorschlägen
Procedure
Brazil
machte
Will
Messe
leiten
Assi@@
Verringerung
temp@@
ora
run@@
techn@@
festival
annehmen
Schw@@
Nachrichten
Vice
freundliche
Immobilien@@
Element
lift
reiche
kanischen
minority
mostly
effectiveness
Pla@@
proud
Al
mus@@
schem
glad
aging
Lauf@@
71
plätze
Änderungsanträgen
trac@@
career
Kam@@
Veranstaltung
Ausführungen
somewhat
3.
Sauna
rechts@@
notwendige
kli@@
Str@@
PRO@@
gei@@
mod@@
emergency
terrorist
confirm
electricity
ov
druck
Farbe
plays
submit
cast
WLAN
ausgeschlossen
familiar
lab@@
massage
sinnvoll
formed
metal
blu@@
zahl@@
Cyprus
U.S.
Pl@@
russischen
iting
nahmen
avec
bottom
personnel
James
fordere
schlägt
ließ
aktiven
früheren
noted
Drittländern
Organ@@
ac
Wissenschaft
Faktoren
angemessene
View
parliaments
Umgang
Programmen
tically
Tru@@
Chinas
Wird
appointed
heating
bound
printing
Show
Führ@@
dynam@@
umgeben
sicht@@
gestellten
pollution
Israeli
hair
chemical
ust
bom@@
Prinzipien
Soviet
slo@@
Ham@@
kurzen
Ausstellung
demanding
Church
Brenn@@
öffentlich
Browser
Beziehung
meant
BSE
Image
woman
54
starts
ación
depending
chter
Earth
nieder@@
hervorheben
We@@
ams
pm
follows
will@@
ska
sern
widely
zuständigen
ausgesetzt
Justiz
Report
Gesellschaften
updated
Maß
displayed
Pet@@
Out@@
Schwerpunkt
irs
tour@@
suites
theit
verabschiedet
Gleichgewicht
ère
stars
Framework
Eis@@
wirkt
zunehmen
zulassen
Basi@@
durchführen
islands
Gegend
Kilometer
Übersetzung
Wind@@
ks@@
3,@@
ktion
rou@@
ton@@
buch@@
sodass
verhindert
accompanied
aut
firms
ences
wen@@
Staat@@
Miss@@
corruption
interior
Ausführung
imposed
motor
Fü@@
verringern
deli@@
settings
unmöglich
breiten
subsidies
clubs
Drittens
judicial
tem@@
mä@@
farm
Sommer@@
Act
Deutschen
Gemein@@
beglückwünschen
visited
este
ill
2.0
Geschäfte
techniques
Rat@@
gehende
bestätigen
Außenpolitik
dol@@
träge
contrast
schei@@
answers
Vereinbarungen
66
orial
gio
Mari@@
viel@@
scheinen
Wein
verbringen
ased
Pass@@
studio
intellectual
News
pped
SMEs
boot
gän@@
compatible
library
lounge
HTML
functioning
avi@@
Erd@@
höheren
Währungs@@
northern
kamen
lied
Mul@@
Verteidigung
Tar@@
0er
Port
nungs@@
satz@@
eignet
Protection
Wander@@
Buchung
Wi
gespeichert
Given
reported
Nov@@
Congress
formal
interessante
SV
declared
drivers
Schlafzimmer
tested
Sun@@
aged
Werbung
looked
module
feed
Garantie
vorher
Sy@@
earth
Mur@@
ausgesprochen
bung
Sozi@@
Straf@@
gearbeitet
quarter
Dek@@
Whether
eastern
Zentralbank
su
definiert
statistics
ander@@
sau@@
Komponenten
d.h.
cked
mo
hö@@
Sonne
sicher@@
assets
letztlich
indicated
prefer
eit
Well
Ide@@
Schluss
füllen
teams
servi@@
Sony
ppe
lists
tag@@
Plenum
provider
aufnehmen
Eurozone
lam@@
Handeln
channels
Space
Alles
verleihen
maintaining
mul@@
windows
Beiträge
Update
fehlt
Planung
heritage
wann
Copenhagen
Kab@@
gerichtet
corner
Rom
gek@@
Analy@@
ía
Zwei
famili@@
planet
hostel
satisfied
ex
Individu@@
ize
direkten
interpre@@
Hilfs@@
sucht
geprüft
Plus
vertre@@
bilateral
mas
AT
TI@@
Hostels
Drogen@@
resistance
grateful
valley
tea
schlecht
passiert
dam@@
rechtliche
Gerichte
transition
mother
Transport@@
einzigartige
EB@@
Asien
welchem
serving
ж@@
Minderheiten
liberal
deckt
eingesch@@
Regierungskonferenz
films
Wol@@
Plattform
showing
declaration
visiting
remote
produk@@
Aktion
Verbraucher@@
Yes
involves
actively
tennis
elte
Ziffer
Besonders
verändern
Optionen
Einbeziehung
arrive
gezwungen
Funds
Signal
Ausgabe
Budapest
aux
fashion
entsteht
flights
Che@@
mess@@
sn@@
lon@@
lebt
spoken
ра@@
Tit@@
Freiheiten
delighted
wollten
demonstrated
heat
onn@@
è
lus@@
liefert
sierte
presents
tourists
relaxation
î@@
Verbot
Dat@@
Sorgen
invite
Portuguese
kes@@
match
decken
trafficking
demonstrate
IP@@
vacation
drug
Lö@@
Food
contacts
wines
Kir@@
dert
hil@@
Fru@@
Rund@@
entwurf
expert
entrance
geboren
Client
Pin@@
ney
ico
Europol
ony
percent
werten
fördert
careful
appearance
ond
Gespräche
illi@@
fei@@
stored
Morgen
Chancen
britische
desk
staat
ency
cash
56
Prague
inhabitants
Cri@@
tos
competent
apart
theme
artist
aller@@
turen
lag@@
Mont@@
1st
ongoing
Rou@@
strict
winning
aner
ausschuß
Sei@@
Je@@
va@@
Jan@@
gestaltet
dich
ferner
expansion
Neue
ž@@
moral
bio@@
gebiete
reject
Noch
exciting
Gründung
explore
Charta
Edition
Haftung
rup@@
AD
bet
asp@@
afternoon
erleichtern
gran@@
solange
tief@@
Veröffentlichung
Einstellungen
ungefähr
rapidly
collaboration
Mobile
organisationen
DA
kla@@
bestehende
channel
reli@@
Adobe
Wünsche
begrüßt
Sit@@
92
concluded
ag
Friday
Baltic
Identität
occur
Studenten
iner
Stück
Wellness
Umfeld
Marktes
ending
Zusatz@@
nahezu
settlement
Les@@
18.
Bemerkungen
überzeugen
frame
gardens
ham
kürz@@
stischen
Perhaps
possibly
committees
53
Jede
speaker
eres
Maastricht
Gol@@
tin@@
educational
passenger
kel@@
karten
geltenden
fitness
sierten
ci
bestimmen
oms
alization
erinnert
functional
Rest
oriented
institutionellen
Kurz@@
holen
raw
cosy
Politiken
ausgeführt
regarded
bemühen
hän@@
12.@@
usual
exit
Blog
argument
59
Sim@@
--@@
Mobilität
Hungary
justified
Fischer
Arbeitsmarkt
04@@
tex@@
erreichbar
standen
sharing
handel
sorgfältig
plenty
lauf
Zielen
Deswegen
hinzufügen
lichkeiten
crimes
bis@@
configuration
Insbesondere
dürfte
präsentieren
yed
por
immigrants
ete
ami
Women
OL@@
SE
Verb@@
jegliche
owned
Kräfte
saving
ace
facility
heutige
copyright
jenen
schlag
overcome
root
Einwanderung
vorschriften
dependent
din
partly
foundation
bus@@
desired
swe@@
replaced
rely
stronger
CE@@
Untersuchungen
jün@@
Je
Or
selbst@@
recorded
Webseiten
einrichtungen
Gerichtshof
count
Stre@@
MB
Konsens
Network
minorities
lösung
Werke
Verbreitung
deck@@
spra@@
schen@@
schauen
lokale
containing
betrieben
lasting
Tim@@
ч@@
verehrte
Belgium
isation
department
documentation
super
vorlegen
Vorgehen
generated
Cli@@
assume
otel
fäl@@
determination
Cha@@
Games
duc@@
constitutional
zieh@@
entes
counter@@
Mün@@
BR@@
zieren
Main
Amendments
brechen
legitimate
depth
Selbst
prozesses
Förder@@
Vorschlags
mix
eten
Kurs
towns
hi
Taiwan
serv@@
a.@@
AKP
Poly@@
Hostel
Firmen@@
smus
slow
übrigens
auer
beruht
awarded
Fle@@
verurteilt
Einkommen
Pact
basi@@
Nah@@
·
Islam
Newsletter
programms
credibility
stru@@
ental
Rem@@
S.
Bedrohung
respected
Sollte
Digital
liegenden
tackle
belie@@
respon@@
phrase
buch
satisfaction
destruction
perfekt
Zwecke
Sollten
Krankheit
größer
Question
Studien
jener
Preisen
Ram@@
Bewer@@
puts
Struktur@@
bemerk@@
tre
Charles
Northern
replace
einheitlichen
occasions
genannte
acted
wand@@
ersetzt
gallery
direkte
banking
Vorstellung
housing
gehenden
poly@@
het
beraten
solid
jo
67
gewährt
enger
Don
tho@@
weite
verkaufen
Produk@@
erhebliche
Gaza
å@@
bly
spi@@
sprachen
losses
stylish
verdient
interpretation
routes
centuries
organisieren
entscheidende
par
Set
strategischen
Zwischen@@
Golf@@
wrote
ishing
Pot@@
SD@@
Dru@@
Balkon
rig@@
On@@
Gest@@
transactions
Puerto
Description
§
rising
cell@@
rt
einig
bekannte
adopting
constitution
Town
scheme
maritime
anz
citizen
ssi@@
58
Training
a.
wn@@
wir@@
AC
battle
Eli@@
verhalten
sprach
abgestimmt
Tab@@
vis
Ferien@@
gangs
deficit
Mission
Sein
reduzieren
Datenschutz@@
individuelle
Oder
Zone
Bars
begrenzt
youth
spectacular
ktionen
manufacturer
EX@@
AN
Schulen
ect
erfolgreiche
esti@@
Lie@@
elsewhere
professionals
Prof@@
Sho@@
äußern
ked
verkauft
Besorgnis
taxation
set@@
Anschluss
Malta
sending
spann@@
ées
raten
grundsätzlich
Hy@@
stream
MA
SS@@
г@@
Asyl@@
ail@@
pot
Versionen
shares
Kapitel
allo@@
Dre@@
mö@@
AM
wohnen
führten
Sektoren
hum@@
sugar
entwickelte
sicheren
Städten
ffs
Applause
tot@@
sit
versorgung
comple@@
arrived
tan
zeichn@@
Waren@@
EG@@
boo@@
correctly
Red@@
index
corresponding
â@@
Wo@@
läßt
beschäftigen
kg
individuellen
Wohlstand
cuts
identi@@
isen
Hohen
enjoyed
hill
exports
SM@@
subsidiarity
division
Federation
legi@@
weekend
vorhandenen
Nachricht
insi@@
AP@@
Selbstverständlich
egal
courts
globalisation
vorstellen
gesellschaften
lob@@
miles
encouraging
roll
Denk@@
considering
eventually
installieren
adults
Mitarbeitern
denden
aufs
igung
Within
Bereitstellung
Law
nunmehr
Following
Acc@@
Gewicht
verstärken
fans
französische
Fel@@
Atlantic
component
VAT
slightly
separ@@
fly
Theater
aum
Wes@@
informationen
effektiv
wear
alt@@
inklusive
88
identified
Fal@@
genügend
Single
5.
straight
CON@@
dru@@
Canon
drücken
lers
rum
AIDS
UC@@
Without
roman@@
offiziellen
inclusion
gebieten
Erzeugnisse
distributed
lock
electric
addresses
Cu@@
suppliers
zentral
revi@@
domain
tie
Auge
quali@@
secret
kam@@
Est@@
Freunden
Vel@@
providers
eti@@
Hamas
Kap@@
Staates
but@@
directed
milk
hängen
Structural
ech@@
leistung
geräte
extraordinary
Hungarian
Kontrollen
einfacher
ville
Gold@@
vulnerable
niveau
dischen
sensible
Son@@
zusammenarbeiten
scene
lle
drinks
Kli@@
rental
patent
Valley
Page
Kas@@
sprach@@
exception
ites
nar@@
op
Hier@@
bestimmter
Desk
modell
army
appeared
recht@@
angebot
behaviour
orts
wissenschaftliche
ements
AR
Year
sinn@@
Verk@@
steuer@@
beigetragen
enheit
Kauf
Salzburg
57
funktion@@
sü@@
tier@@
Männern
herrscht
Beschluss
vorbereitet
gewonnen
asser@@
industri@@
kn@@
Bemerkung
Nos
decisive
preparing
App@@
werken
herr@@
Zy@@
marquis
Bes@@
Ele@@
Py@@
Herz@@
voraus@@
spe@@
Master
Ungarn
Grad
magnificent
theory
erlebt
aussprechen
EA
außerordentlich
excessive
gerät
entscheidender
CS
Lounge
ulate
Ag@@
drop
Sunday
ET
sil@@
antes
Vater
Vorsitz
verbinden
sus
Ton@@
gas@@
employed
Cer@@
ruhig
Viertel
Einheit
erfolgreichen
wiederholen
university
Fax
traditionelle
bat@@
Point
generate
proposes
absence
fs@@
unverzüglich
filter
ähnlich
ash
......
Neben@@
viol@@
Exchange
Videos
Systemen
Medien@@
updates
Г
Tau@@
Wohnung
drei@@
substance
Assembly
label
Autom@@
alized
Polizei
Brasilien
schu@@
hundred
trend
wege
tischer
tun@@
Tour@@
didn
referendum
angegebenen
erhielt
bislang
Touristen
rie@@
ologischen
Kontakt@@
Balkans
top@@
Mangel
schrift
hr
inger
finanziert
Anti
impose
Schlussfolgerungen
flows
arti@@
vin@@
kräfte
77
OM@@
surely
й
gewi@@
derte
Kontext
gefallen
Nord
verantwortungs@@
plenary
invest
antly
filled
Cra@@
heim
änden
Katastrophe
enhance
suffer
tables
della
digung
eingereicht
dokum@@
Sig@@
Gran
Rap@@
Stimm@@
ensures
Marke
examine
EP
kun@@
beschrieben
Bern@@
Budget
therapy
wave
representation
trägen
deposit
Fon@@
Captain
investieren
klar@@
Lieferung
formation
selling
artistic
Blan@@
verkehrs@@
15.
fahrer
vieles
occup@@
dende
Ansichten
tran@@
lessons
spo@@
selben
everyday
yn@@
raising
aqu@@
Like
wie@@
carrying
disk
Mol@@
Zimmer@@
fon@@
großem
lik@@
Zusätzlich
thousand
Hü@@
productivity
ordinary
heben
EZB
Erstellung
accurate
liked
betreffend
duties
elektronischen
concepts
tobacco
abuse
Lab@@
menschliche
eil
heim@@
sah
transpor@@
spoke
Log@@
rating
Tan@@
Design@@
Schwei@@
p.m.
savings
ances
ish@@
Egypt
ums@@
ura
pel@@
supplies
complicated
Pack@@
cos
Genehmigung
Thirdly
zahl
gh
BMW
bonus
&apos;m
Dienstleistungs@@
itäts@@
Islamic
schwer@@
subjects
virtual
essi@@
wohl@@
gestattet
pursue
89
Sou@@
Spaß
Stimmen
beteiligen
solely
specified
inde@@
leistungen
toward
portal
jährige
connect
angebracht
asses
stag@@
topics
Vis@@
4.
Einwohner
radi@@
traditions
Know
enabled
Rechtsgrundlage
geschichte
wechsel
gewissen
vermitteln
packaging
proposing
gained
mischen
arischen
Legal
ride
shipping
proven
Lok@@
hervor
Entscheidungs@@
applying
sm
unity
vice
Positionen
Software@@
Führungs@@
ories
Director
stimm@@
wonder
Garden
Apple
PC@@
Kredit@@
Eisenbahn@@
Sicherung
Konsequenzen
Dauer
cro@@
stolz
relative
alities
ented
voluntary
tree
Cup
solches
prime
geln
hör@@
zeichnen
Konto
forests
ests
consent
ы
paying
Schlüssel
ès
Kop@@
lined
Americans
kleines
Flüchtlinge
Wachstums@@
mittleren
trial
Rahmen@@
sers
bach
renowned
tab@@
atische
bi
labor
ähnliche
notes
Thursday
gg@@
description
politically
sozialer
C5
62
nevertheless
häuser
greatly
oper@@
Gran@@
kri@@
Zivilgesellschaft
prosperity
wert@@
absor@@
Schiff@@
anwesend
kraft@@
Beschlüsse
Co
Distribution
integriert
wiederholt
ori
11.@@
erzeugt
ema
departure
luxurious
tak@@
proceed
100@@
Trau@@
manche
licht
Korruption
ix
videos
weitgehend
mati@@
TE
ziele
Pakete
philosophy
mes@@
Überlegungen
ading
digt
equi@@
villages
wunderschönen
82
pack@@
bereichen
mol@@
Glaubwürdigkeit
auto@@
vil@@
layer
museums
nde
Budgets
ras
ь@@
eingehalten
suggested
Nummer
wirtschaftlich
suggestions
einzigartigen
Bulgarien
countryside
oria
impor@@
zeu@@
Wur@@
Gast
mussten
Gegenstand
zogen
promised
König@@
vorher@@
ile
handle
Modelle
internen
cc@@
VER@@
lte
Wirtschaftswachstum
betrieb@@
Reduzierung
geboten
lad@@
comparison
wirtschafts@@
jahr
treat
finish
Gewährleistung
organ@@
fuer
Direc@@
uted
Content
tei@@
gebildet
ACP
arbeits@@
Aut@@
Halb@@
hear@@
Deutsch
Kulturen
zuständig
bedeutende
Frei@@
Prozesse
Besides
ji
verbindet
Provinz
enabling
Having
Landes@@
zäh@@
langfristige
sex
sische
angegeben
weak
attempts
religion
Termin@@
Betrag
Lebensmittel
missing
non@@
verkehrs
Gefahren
receiving
pure
Kroatien
Darum
Eigentum
trag
ned
lev@@
bereitgestellt
societies
93
periods
Quality
supplier
eld
liefer@@
invited
Hot@@
tes@@
Schwer@@
bekommt
chtung
vorge@@
sought
sheet
Verlust
anbelangt
necessarily
directory
DO@@
Agriculture
DC
Massen@@
Verletzung
steuern
Mail@@
Arbeit@@
probleme
Next
arguments
import
Sat@@
trips
skiing
Secretary
ans@@
Tool
difficulty
Dep@@
Christ@@
enswert
Pul@@
verein@@
Energien
Menü
colours
ST
Erfüllung
einbezogen
pil@@
Kriegs@@
sichts@@
Alt@@
ziel@@
Vorhaben
Glück
beobachten
killed
Tools
beantworten
dict@@
Rö@@
effek@@
ursprünglich
Professor
wechsel@@
Feld
aria
Cur@@
letztendlich
angeb@@
effizient
mangel@@
Anlass
Boo@@
kette
ret@@
fourth
istic
chem@@
fizierung
disabled
mali@@
patient
inmitten
laufenden
homes
Finanzierungs@@
Strasbourg
eat
upper
reservations
Get@@
thin
sicherung
depend
actors
bergen
enzi@@
Trotzdem
esse
HO@@
Audio
Monday
twenty
cleaning
Guests
gerufen
gungen
schwei@@
gemein@@
Gerät
dream
input
B5
Holiday
pp
erstmals
shot
farming
punkte
Schiff
Stoffe
altern@@
Offen@@
pools
setz@@
langsam
richtet
17.
verteidigen
united
stages
mechan@@
Gericht
ils
Kollegin
78
Wo
wach@@
freut
Wirtschaf@@
angesehen
erst@@
ausgerichtet
Bul@@
ald
chtet
Castle
ph
constitute
dd@@
behaupten
Verfassungs@@
weiten
69
Parkplatz
imports
Ganz
ständen
Praktiken
Asian
betreiben
Schiffe
messen
Aufsichts@@
leaves
ECB
eo
hy@@
supposed
resource
Key@@
steigt
spartner
destroyed
significance
73
Kontakte
stä@@
individuell
gue
unds
intern@@
fü@@
reduziert
inner
Boden@@
überprüft
gelingt
Belgien
succeed
moder@@
Up
sounds
Les
einzusetzen
Based
arm@@
Family
egt
iPhone
konfrontiert
militärischen
Person@@
symbol
63
Identi@@
allocated
Sem@@
Blue
Anstieg
künftige
recognized
ausgezeichnet
Gerechtigkeit
zuge@@
Strom@@
XP
militärische
refer@@
entschlossen
permitted
armed
geo@@
Guide
estimated
fang
ehen
Kommissions@@
portfolio
bo
ose
Grünen
remained
ersetzen
fertig
smo@@
esch@@
entspannen
oning
Blo@@
Place
cooperate
kern
Suiten
auftreten
confirmation
resul@@
satisfactory
Islands
rare
ford
Geschmack
regul@@
4,@@
richtung
verteilt
welcoming
Perspektive
projekte
zukünftigen
uter
Tem@@
Amt
Werbe@@
gründen
zentren
Wählen
Gut@@
Ol@@
Mes@@
Körper@@
fundament@@
leben@@
täglichen
aire
Playa
publication
Weg@@
villa
Tat@@
ration@@
allzu
male
Ant@@
Wechsel@@
án
freedoms
gedacht
passen
song
Wald@@
Finanzkrise
obliged
New@@
yo@@
Education
NO@@
e-
Situated
läu@@
institutionelle
negotiating
apo@@
delicious
optimale
Email
refers
speci@@
verfügbaren
Bis@@
vent@@
absol@@
schnell@@
productive
continuous
Thailand
struktur
lived
lobby
gap
turning
gemeinschaftlichen
federal
dness
dauert
sively
©
Tätigkeiten
suffered
sphere
offene
Mrd.
preventing
hardly
Prozesses
illu@@
decade
spiele
wireless
konzentriert
bot
Kirk
breit@@
zeug
oth
unterscheiden
legally
Australia
Dafür
illegalen
none
contributed
Entlastung
belief
ologische
Nachbarn
Übergangs@@
appe@@
Finland
Refer@@
legte
Fahrzeuge
Verarbeitung
Gerade
dence
Personal@@
Gehminuten
beendet
Stockholm
covering
hierbei
fur@@
tra
brachte
welcomed
itä@@
Ausmaß
gering
Mut
unabhängigen
tionally
merk@@
hung
Branche
instructions
int@@
füll@@
wild
kontrolle
barriers
Through
movements
sab@@
overview
utz@@
musical
Situationen
Regierungschefs
Seg@@
movie
revision
teilung
whereas
fir@@
fees
unforgettable
wirksame
strategische
TA
ua
Gang
fähigen
Who
sections
itali@@
initi@@
zeug@@
harmonisation
enterprise
kro@@
Berliner
nungen
programming
trends
74
introducing
cket
bares
mitglieder
camp@@
dienst@@
wettbewerbs@@
explained
versichern
Berg
dau@@
songs
hier@@
SU@@
SQL
dische
conventional
characters
sin
Telefon@@
prakti@@
geschäf@@
vorgesehenen
Nachbar@@
76
driven
äm@@
gelassen
licherweise
specialist
Organe
deswegen
Krisen@@
Märkten
vorzulegen
Bade@@
unterstreichen
Regional
supervision
IV@@
sparen
Runde
organic
hot@@
Tip
Gemeinde
Bot@@
Kla@@
motor@@
16.
absch@@
cot@@
cells
übersch@@
gendes
fulfil
Ablehnung
PSE
Rio
Mei@@
director
lunch
Vietnam
Venice
prop@@
vollständigen
clean@@
NGOs
cab@@
Kanada
Pläne
Widerspruch
sustainability
SAP
cian
interessant
fanden
geprägt
angepasst
91
wis@@
visu@@
LU@@
gemeinschaft
Socialist
proceedings
welcomes
UNESCO
unterzeichnet
Veränderung
female
Pau@@
Posi@@
wär@@
Freitag
speichern
Hans
klu@@
Programm@@
Stability
individu@@
Sammlung
Ker@@
leb@@
Allianz
6.
tiz@@
gerich@@
nd
Flü@@
kontaktieren
Facilities
Internationale
Armee
lieber
eur
football
klein
94
inten@@
shift
Fla@@
Sachen
Prüf@@
spreche
classes
Rent@@
entspann@@
dering
arise
fax
größeres
sichtbar
max
sogenannten
functionality
Computer@@
Ausflüge
alisierten
Pon@@
originally
mitteilen
euros
stocks
indicate
severe
Beitritts@@
hart
Zeitung
halb
bisherigen
Auditors
ols
SCH@@
gut@@
Genießen
faith
checks
Herz
empfangen
kti@@
zukünftige
forthcoming
transmission
thermal
SI
dere
Schloss
Standort
Öl
everybody
chair
Schweizer
Sü@@
entsch@@
Project
gesetz@@
Dol@@
langfristig
Zuständigkeit
tech
restricted
safeguard
amt
Zer@@
birth
täten
Institut
anhand
ranging
LA
Sul@@
äh@@
ergibt
unabhängige
Abschaffung
firmly
Weiteren
designs
proc@@
showed
wahren
enhanced
Komm@@
vertrag
anschließend
computers
verdienen
Lizenz
abstimmen
beings
61
2015
Hö@@
Staatsan@@
ließen
natürliche
fassung
reflected
parameters
vorgeschlagene
ential
AF@@
Corporate
märkte
geraten
modules
0s
hospitality
unterliegen
stil@@
Album
wachsenden
cancer
nutz@@
Volkes
parliament
tual
Sound
blocks
budgets
chn@@
Betten
komple@@
hingegen
regardless
Stiftung
Piazza
dark
labelling
viertel
aktiviert
wellness
verwaltung
MP3
Handels
them@@
Zug
Hardware
Konflikte
rot@@
40@@
amenities
Andere
grenzen
saved
archi@@
enge
Sohn
beru@@
objek@@
imagine
obstacles
ind
Wür@@
König
Elektro@@
exploitation
pick
Should
adapt
Tibet
Frühstücksbuffet
Ebenen
Übernachtung
Rückkehr
fairly
ima@@
Saturday
Serbia
bestellen
Freizügigkeit
hearing
Hom@@
universities
errors
ume
effiziente
Road
vorschlag
ease
dead
Culture
asi
nine
selten
Mittelmeer
pä@@
stieg
praktische
Sind
Marken
ano@@
strukturi@@
realise
Source
könnt
Tages
Leitung
81
Geneva
Dritten
ô@@
Indian
leu@@
dt
Büro
Geschäft
eta
ordin@@
modi@@
dry
adverti@@
Prop@@
Schon
Hab@@
stück
reflects
PD@@
Stuttgart
ange
Lang@@
Willkommen
Mr.
Vorsch@@
vessels
xen
fru@@
Mah@@
HD
Quellen
eda
druck@@
coordinated
Mallorca
Ankunft
benen
nes
generations
hochwertige
s.
ator@@
Donnerstag
fährt
verti@@
mouth
kernel
я@@
flächen
gewähren
Tourism
ells
ares
decline
Don@@
amed
Jahrzehnten
terung
Abhängigkeit
Vorlage
Ari@@
collected
tert
Planeten
considerably
ished
suit
ativ@@
Customer
anschließen
Grün@@
politisches
Abendessen
Gerichts@@
zeugen
Erinnerung
tief
umfangreiche
Es@@
grosse
nbsp
worst
shed
acceptance
sovereignty
worthy
Führer
hen@@
Redner
normalerweise
BC
Pr@@
herunterladen
greift
Respekt
exclusion
thi@@
combine
dens
Vista
konferenz
griechischen
Balkan
Tor
vorbei
internationally
forschung
ati
fleet
snow
zog
remarks
ROM
fähi@@
Alexander
equivalent
investigation
boards
sä@@
schule
Equ@@
grade
Mutter
reaction
disasters
undoubtedly
ession
sach@@
IMF
Christmas
cement
HT@@
Reisen
fix
verboten
fügen
ligh@@
lic
letters
amazing
edition
lieren
enthaltenen
nehmer
iled
mente
managing
roots
Play@@
Aktionsplan
adapted
det@@
dignity
besonderer
kin@@
7.
gebeten
endorse
diversi@@
dollar
SP
wür@@
züge
sammeln
HIV
Cent@@
enes
coun@@
Cho@@
normalen
hohem
vereinbart
küh@@
Geheim@@
gal@@
PP@@
Hong
ökonomischen
dal
Plas@@
krise
system@@
mine
bol@@
romantic
ere@@
kontrollieren
zuzu@@
dargestellt
erkannt
letz@@
Does
arbeitete
wonach
ernsthaft
Binnenmarktes
Maschine
Quelle
behoben
Befugnisse
Gleichstellung
Haushaltsplan
Consumer
courage
hervorgehoben
Kong
1980
wald
sauber
linien
believes
dated
ling@@
shore
Det@@
Jugend@@
methoden
iniert
Cy@@
Il
Joseph
passt
Investitions@@
19th
aling
irre@@
Gor@@
Science
kel
gehei@@
freundlichen
wage
Börse
ungsverfahren
anzuzeigen
sees
bereiten
script
externen
Steuerung
Volksgesundheit
erfordern
Richard
Stad@@
zugrunde
cour@@
Rein@@
nummer
direc@@
Mark
eurozone
Rechten
ager
abilities
Administration
zahlung
schweren
penalty
Datei@@
produzieren
jetzigen
dankbar
nütz@@
beschränken
subsequent
restructuring
tracks
Der@@
Orte
anim@@
dei
Cookies
lern
reise
bestimmungen
Berichten
eckt
Regel@@
lösungen
Commissioners
mere
Form@@
Partner@@
hervorragenden
Vorausschau
iling
travelling
Reserve
egel@@
schnellen
vorliegende
Bag@@
Investoren
ped
Verteilung
voran@@
OK
Beteiligten
Erst
Zahlungen
excluded
feu@@
gaben
protocol
steten
reifen
pretty
joining
Georgia
Brand@@
ко@@
festzulegen
betra@@
clause
justi@@
consulting
EP@@
reck@@
alu@@
guided
Jugend
diert
Ursachen
ski@@
Opposition
Fan@@
heits@@
cultures
metro
umzu@@
Meines
Cle@@
atz
rechnen
violations
doub@@
heißen
learned
sights
Academy
steh@@
seri@@
supplied
Gesam@@
einheitliche
wat@@
till
Full
Wochenende
restored
graphic
kap@@
meter
io
gewünschten
mittlerweile
ordered
sand
ENT
accident
überaus
Großteil
Fehler@@
IM
sierungs@@
fas@@
geplant
promise
ер@@
s-
Tal
Würde
erfreut
sing@@
CHF
Entspannung
servers
Blut@@
letzter
emo@@
Sudan
compact
enorme
entgegen
anc@@
900
Meeting
steam
Ed@@
leich@@
Heizung
ätze
printed
я
Geschwindigkeit
Teams
Ga@@
factory
trav@@
cell
Fein@@
humanitäre
zurückzuführen
shadow
Got@@
Mü@@
aufgebaut
nachdrücklich
erwähnen
restore
underground
aside
altet
cer
esta
Kriminalität
ario
nat@@
Fuß@@
13.
deeply
dating
revolution
magazine
missions
freely
Roman@@
dialog
Schla@@
gie@@
Generationen
gestaltung
transferred
stem
nec@@
ats@@
emen
automati@@
teils
antworten
garten
untersucht
faces
voc@@
tionary
8.
assess
Dro@@
DER
processed
Vertrages
stan
Opera
everywhere
frühen
Arbeitsplatz
ober@@
klassischen
Kapital
gefragt
existiert
ean
satisfy
festgelegten
holds
anywhere
regel@@
schla@@
12.
Beide
Reservierung
umsetzen
mini@@
hoffentlich
Fahrt
Interess@@
venti@@
assembly
Ret@@
Stat@@
illa
eben@@
Schönheit
Passwort
geleitet
Faktor
ausgaben
Spezial@@
Darstellung
lischen
push
sty@@
Bereitschaft
leichter
analyse
Dam@@
Saudi
dur@@
Dreh@@
Wandel
vali@@
Transpor@@
Max
bezahlt
concentrate
zun@@
einzuführen
strengthened
targeted
contrac@@
panel
Location
Tausende
senken
unterschiedlich
Küsten@@
Anwendungs@@
approve
о
Agenturen
student
typ@@
entdeckt
profits
blei@@
besu@@
Among
glob@@
Rechtsstaatlichkeit
überein
leitung
agi@@
türkischen
reliability
Papier
sichti@@
executive
Boot
Amerikaner
Gemeinsame
stammt
Industry
Stock
seu@@
Be
brau@@
alisiert
Kontinent
logical
Casa
Metro@@
Haut
diskrimin@@
ih@@
Eingang
conf@@
bedanken
Öffnung
Denmark
soli@@
plastic
chti@@
10.
undertaken
Bab@@
solar
berichten
Währungsunion
Presse
komplette
alisieren
unfair
Line
Kampagne
Cel@@
eingegangen
bles
Sol
Minute
hierfür
treiben
Frist
gestal@@
ktion@@
foot@@
billi@@
Sitz@@
groß@@
alem
bewältigen
Konferenz@@
aly@@
get@@
Nero
begleitet
popul@@
imperi@@
Rock
grad
Bord
Symbol
izi@@
Dritte
Euch
Bour@@
gkeiten
Museen
reconstruction
struggle
richtlinie
threats
fishermen
acknowledge
hast
Notes
Fernsehen
Pack
ativer
Diam@@
Will@@
offizielle
produces
ssen@@
beenden
verfol@@
Doha
Stärke
trat
ino@@
geber
folge
umfassend
reserved
Optim@@
Besitz@@
perfekte
ös@@
räger
Handlungs@@
Parameter
gewal@@
erweitern
Information@@
floors
cool
Zürich
stattfindet
IWF
Kreditkarte
EM
früh@@
switch
damages
Motor
zia
entering
miss
GT@@
Schulden
meal
treatments
5,@@
Schön@@
Schlaf@@
prospects
phones
Fr@@
Luxemburg
luss@@
beziehungen
Miß@@
Spielen
narrow
überwinden
glaub@@
Umweltschutz
Bir@@
korrekt
Tür@@
grossen
hydro@@
bright
Bom@@
Alp@@
geeignete
poses
aches
besorgt
disc@@
Mir
linie
prozesse
formats
Friendly
arising
но@@
teste
Kern
normally
eria
ehrt
var
Wir@@
Kranken@@
Nahrungsmittel@@
camp
grown
Hauptbahnhof
heading
Florenz
Kaffee
bende
angewendet
funded
adding
lü@@
Verlauf
overlooking
activ@@
ever@@
87
operates
Exper@@
kurs
picturesque
Sonn@@
Schad@@
Kategorien
melden
forth
anniversary
keinem
Hat
Deb@@
ütz@@
presenting
vi
frem@@
Registrierung
boost
Labour
graph@@
Spitzen@@
intelligent
sisch
zerstört
elli@@
festen
komfortable
tac@@
Av@@
digitalen
quar@@
CAP
Tel
AK@@
kehr@@
gia
Kompetenz
Kandidaten
vornehmen
gestärkt
engaged
ial
UT@@
einfach@@
gegenwärtige
rali@@
Bin@@
Potenzial
Golden
Pati@@
Dass
Bearbeitung
strasse
stärkere
geäußert
commun@@
Fir@@
н
14.
steigern
Bestimmung
attached
Protocol
Anwender
individually
Gelder
Wesentlichen
briefly
belong
gement
sible
Dies@@
qualitativ
pillar
Niederlanden
Erhaltung
province
casino
hü@@
gesetzlichen
Somit
twice
neighbouring
superior
els@@
ahn@@
reputation
Staff
Events
ray
einf@@
essentially
kop@@
Speci@@
mile
29@@
loser
mächti@@
ho
fers
stores
Debatten
gewer@@
án@@
Tests
gungs@@
lädt
College
posed
territorial
highlights
Herbst
lehr@@
Dokumenten
Beseitigung
voraus
candidates
Mini@@
GPS
langer
Mexiko
ecological
collect
lica
hiking
catch
teaching
panoramic
Resolution
taxi
Wirtschaftskrise
Port@@
inn
profession@@
usage
fähige
negativen
SC
Bol@@
Zw@@
Verein@@
Autobahn
eingestellt
custom@@
CD@@
EX
proportion
Society
mented
angemessenen
sional
empfohlen
Bibliothek
Freund
heads
inner@@
listings
Vari@@
Cou@@
BA
nützlich
engines
Haben
Fac@@
sleep
Innenstadt
bereitet
langfristigen
Zahlung
Republi@@
räumen
Strecke
Vereinfachung
journ@@
9.
Quar@@
Bed
Wikitravel
bekämpfung
Would
seconds
acqu@@
Extre@@
Warcraft
ziger
manufacture
Gam@@
eleg@@
Kopenhagen
Belgian
Rus@@
genaue
sichergestellt
diplomatic
Speisen
wort
Eff@@
phenomenon
sich@@
Fun@@
polis
gelesen
zwingen
Ven@@
DS@@
itable
operated
lla
zeichnungen
surprise
altung
Straßburg
causing
warning
Strand@@
Mechanismen
Fluss
gleichermaßen
mistake
pressing
sufficiently
amp
öff@@
begins
visual
selber
occurred
stration
verse
dance
Ty@@
linken
Ali@@
bathrooms
kennt
appropriations
feet
ses@@
Lizenz@@
Ägypten
Tonnen
kir@@
behält
efficiently
ry@@
prot@@
kontrolliert
Louis
rad@@
Überblick
verweisen
varied
scientists
olive
mögen
Common
ji@@
cla@@
makers
ey@@
Parkplätze
riding
Sierra
pace
native
wendet
Lern@@
tum
Š@@
selb@@
tö@@
klasse
Consequently
urgently
Ferienwohnung
chern
zukommen
Berichterstatters
Islam@@
Gau@@
A.
Instruments
effektive
adds
Autos
zü@@
integrierten
inspired
GN@@
recording
cial
Muslim
anne
ction
lieben
bedeutenden
rechtzeitig
synchron@@
2nd
Tür
Parlamente
concert
Tsch@@
Todes@@
graphics
Hohe
müsste
Drittel
Syria
lien
kämp@@
froh
herrlichen
lenken
Investment
Montag
CDs
verwende
relates
meets
Performance
Typ@@
ali
stammen
irischen
horse
Inv@@
ergänzt
Andererseits
ups
Cab@@
ais
shuttle
recognize
Zypern
referring
ici@@
codes
victory
Residence
zige
intends
producer
Drei@@
Saddam
в
Länge
83
Religion
DR@@
bild@@
esc@@
eigener
Senkung
ø@@
widespread
pole
honour
stunning
binden
tile
Vier@@
rechtlich
crew
Children
erklärte
cr@@
Lat@@
sprech@@
stoßen
medicine
stuff
ín
conditioned
Miet@@
ament
marine
seats
such@@
uniform
modern@@
liable
PH@@
ř@@
derzeitige
Versorgung
shel@@
Dingen
konkret
Staats-
Super
Musi@@
unmittelbarer
Helsinki
84
Maschinen@@
zweitens
inst@@
engage
Mod@@
virtually
acquired
Pacific
FA@@
Innovationen
Auftrags@@
denjenigen
records
außen
wertung
stellungs@@
succeeded
consequence
speciali@@
yard
Area
zy
Augenblick
kno@@
Parlament@@
Detail
Personen@@
eless
geographical
revenue
gradually
ão
agents
alcohol
atri@@
Original
anzubieten
Widerstand
Regulierung
resulted
lier
Basel
flug@@
Projekts
gesam@@
finanzieren
pur@@
verst@@
ländliche
choices
execution
sophisticated
combines
play@@
musi@@
gefähr@@
bewahren
untersuchen
highlighted
coherent
Sens@@
tivität
vely
ept
Zusammenhalt
Wähler
IK@@
üb@@
gehörigen
entscheidenden
Civil
Schn@@
griffen
Polizei@@
Jugendlichen
Small
ases
Using
typischen
Ul@@
kilometres
kus@@
hypo@@
with@@
plate
schö@@
Urteil
integrate
omp@@
hole
80@@
irgend@@
Dialogs
pas
Premierminister
tively
Ange@@
Ombudsman
oldest
sidenten
Hindernisse
Ah@@
ologi@@
besucht
Sicherheitspolitik
fak@@
Macht@@
Benutzung
chinesische
strictly
girls
erzeugen
habit@@
manu@@
lass
Gemeinschaften
elli
gesp@@
auffordern
och
incorporated
lichsten
explanation
Glauben
passing
oring
Chile
Chem@@
beer
C.
Top@@
angel@@
schw@@
considers
Explorer
Appartements
Saison
constructed
domin@@
operator
Prozess@@
Vertretern
Oberfläche
errichtet
convenience
troops
custom
garage
Bedürfnissen
Car
Patent@@
Parlaments@@
ington
rank
Jerusalem
Professional
GA
Berge
Department
soil
Messe@@
XML
müssten
bett
taining
Have
Pension
entsp@@
weltweite
Holz
roof
QU@@
Nachhaltigkeit
affects
schm@@
Bedien@@
bak@@
Inflation
Mittelmeer@@
Mandat
60@@
bay
Objek@@
Lastly
sitzen
hidden
specialists
gekennzeichnet
tigkeiten
losigkeit
Todesstrafe
Cooperation
gültig
überlassen
boats
crises
vent
Foto@@
kümmern
Go
Roll@@
Suites
favourable
ME
knapp
Ausbildungs@@
stories
teachers
Porto
tnissen
sichtlich
tered
Ay@@
chtigen
Gewinn@@
Gem@@
30.
Bereits
Roh@@
projekt
Häuser
Fas@@
pap@@
Airlines
istisch
beinhalten
encouraged
upgrade
Mass@@
м
verfahrens
ood
mouse
vic@@
GR@@
betrieb
sel
Inf@@
meals
manual
Tech
Mädchen
Stamm@@
urlaub
grenz@@
gross
airports
armen
programmen
program@@
champ@@
Renn@@
zel@@
haf@@
Beachtung
sound@@
arm
prison
Three
Ok@@
Hinweise
hierzu
Danish
reporting
Ski
aktuell
vorgestellt
Schreiben
dist@@
innov@@
Sieg
construc@@
willingness
Mechanismus
etes
Mono@@
Nigeria
wes@@
wu@@
sied@@
Boot@@
repair
Höchst@@
NE@@
Käufer
checked
Jesus
Span@@
kompet@@
Ansprüche
märkten
Sonntag
angenehmen
Fehl@@
wartet
maxim@@
Pflanzen
Further
gere
Nikon
Ergebnissen
prisoners
beeinflussen
cas
zero
environmentally
ao
broken
Text@@
evol@@
sement
Ach@@
Umweltfragen
associations
stick
og@@
ade@@
Black@@
Safe
Journalisten
vergleich@@
sterben
grünen
Jung@@
theore@@
achievement
gehandelt
Übertragung
stry
Ran@@
Kle@@
mäßige
Joint
Glas@@
Schulden@@
klassi@@
verletzt
praktischen
angenehm
oftmals
setzte
sektors
unentgeltlich
aviation
outs
350
By@@
Volkswirtschaften
alongside
Big
Access
nich@@
Nokia
chi
Dach@@
ал@@
wechseln
Sobald
Make
Aktien@@
produkten
agne
insist
Truppen
percentage
Nor
Versammlung
seeks
Out
za@@
moderni@@
participating
sexu@@
ı@@
sien
kamp@@
komp@@
nern
Umwel@@
älteren
infolge
ht
befasst
radical
diff@@
Wirksamkeit
ires
Constitutional
netz
Fläche
gelangt
79
Imp@@
Esp@@
gewählten
add@@
hes
free@@
peri@@
gastronom@@
sand@@
wahlen
observed
convergence
prize
Ticket
toren
diesbezüglich
Authority
Schu@@
Series
liger
exact
20th
UL@@
Cuba
GAP
stische
capabilities
preserve
gefährdet
promises
Typ
grund@@
Verwirklichung
6,@@
Eng@@
europäisches
akt
geschickt
dest
compar@@
eventuell
bearing
¼
Energieeffizienz
Wirtschaftspolitik
gon
accidents
fro@@
Apart
composition
Siemens
Archi@@
ärer
anzeigen
festzustellen
surprised
organiz@@
Terms
bü@@
Finnland
A.@@
regulated
wander@@
fiziert
attend
seemed
Hum@@
Bak@@
Präsenz
bringung
Errichtung
asset
colors
gänge
realer
elec@@
1988
Michel
Nat@@
feh@@
wesentlicher
spite
Erlebnis
illegale
spezialisiert
thri@@
Tauch@@
ign@@
ć
Lesen
dation
theatre
ples
Sin@@
berechnet
sitz
förder@@
Ken@@
finanzi@@
palästinensischen
wahr
implications
iring
ш@@
ausgewählt
angewandt
geführte
homo@@
Modernisierung
alisi@@
Dresden
aming
eig@@
abend
geblieben
dauer
neun
immer@@
fan
Vir@@
Anmeldung
Benutzer@@
Hän@@
tut@@
PAR@@
DS
Brun@@
convention
clock
KDE
Treaties
eland
Metro
stätigkeit
SY@@
kra@@
momentan
clarify
igkeit
Human@@
variable
hills
keys
Är@@
incentives
vig@@
fügt
Datum
mon
PM
jedenfalls
hopes
Rol@@
Florence
specialized
aktu@@
anzunehmen
Chairman
Meg@@
akte
Spitze
empty
Anim@@
Ori@@
Engineering
evident
stake
quotas
wur@@
humanitären
aufzubauen
Lü@@
purely
Scho@@
Portal
schwere
wirkliche
utmost
Amts@@
Akteure
dispute
diplom@@
stechnik
zustellen
harmful
Stock@@
Entfernung
regelung
multilateral
stayed
fällig
dial
V.
ý
Zuge
Besuchen
permission
wonder@@
Bou@@
Module
strukturen
Außen-
teen
prü@@
sessions
afrikanischen
1.5
soeben
spät
ен@@
derten
endet
schwierige
minor
gate
sequ@@
üt@@
usw
Vorstellungen
conferences
gesetz
Sektors
Az@@
wooden
ados
Weil
renoviert
nü@@
verwal@@
governing
part@@
Travel
closure
OECD
bru@@
Operation
Woh@@
hur@@
Jewish
Räume
Vertrag@@
initially
tant
dul@@
indoor
erh@@
tigte
sauber@@
itation
compulsory
believed
Vic@@
Lis@@
xis
beu@@
hungen
ehemalige
Kohäsionspolitik
lement
Betreuung
mentation
stung
günstige
geregelt
opens
Ner@@
Allah
ede
A3@@
suff@@
bewer@@
accounting
wäl@@
Tabak@@
fis@@
ALE
Gay
italienische
Argumente
cky
booked
Ly@@
sitz@@
Marken@@
Rand@@
Flo@@
Wohnzimmer
secondly
cen@@
bewerten
Immobilien
relationships
kit@@
zo
Direkt@@
ergänzen
Account
ital
west@@
Gottes
flexi@@
transfers
gam@@
Herr@@
Stell@@
Spezialitäten
Arbeitnehmern
RSS
Wissenschaftler
Vermittlungs@@
scheduled
wife
verringert
string
expand
ea
pilot
Schwar@@
enforcement
encies
Entwickler
enting
forming
Burma
ons@@
hinweg
charakter@@
expense
Wall
ungser@@
Erst@@
offenbar
Regional@@
Verteidigungs@@
conver@@
geschlossenen
Dokumentation
Bö@@
krimin@@
benutz@@
mische
hinzu
tivity
classical
uring
communicate
progres@@
Leipzig
Bücher
Einen
Strände
festlegen
Krieges
Übrigen
ux
IX
Arena
ansehen
projec@@
ld@@
Fei@@
Search
akes
extending
portra@@
Betriebe
acks
assigned
Last@@
tro
gesellschaftlichen
approaches
developers
Leg@@
Schei@@
Philosophie
Ausarbeitung
Demokraten
ultimate
loading
Blu@@
funk@@
Zwar
entieren
poll@@
Ersatz@@
fing
airlines
navigation
Firefox
Grundlagen
professionelle
Verbraucherschutz
Karl
maybe
still@@
Armen@@
Europ@@
Sau@@
contextual
entliche
zahlungen
Schüler
concentration
PE
toler@@
Level
Visi@@
Werten
Andalu@@
Gas
Mart@@
Ausweitung
eliminate
Fundamental
jk
180
gor@@
Smoking
SL
tains
wächst
Wiederaufbau
array
calm
ück@@
geliefert
Traditionen
chairman
UR
enormen
prin@@
alitäten
alisierte
decre@@
smooth
addressing
aw@@
Transfer
funktion
I.
Flughäfen
retain
iness
tiere
alists
Ke@@
mixed
than@@
Samstag
manchen
berühmte
clim@@
Product
Satz
discount
digungen
Sicher@@
repeated
fot@@
Souveränität
prob@@
charm
dene
iges
Versicherungs@@
Auflösung
dumping
jan
Himmel
Weiterentwicklung
poorest
permit
endor@@
medieval
versteht
organise
ail
Riviera
Effekt
günsti@@
gence
tender
adventure
Milch@@
bon
amended
schemes
tags
halt@@
verw@@
exposed
ě@@
Wohnungen
dunk@@
Verzeichnis
ausüben
audience
Wild@@
qui
branche
negotiation
hä@@
bungen
Völker@@
mern
Übergang
ansprechen
Monte
Schwe@@
digitale
Jedoch
110
Ky@@
edited
e.g
Cock@@
unde
Bildern
Urlaubs@@
Gesetzes@@
Tak@@
chron@@
Russlands
beseitigen
CEO
Edinburgh
CA
uss@@
.net
Nizza
änder
Quark
Dänemark
eded
Oli@@
Filme
remarkable
stur@@
Aussage
volles
äumen
Licht@@
hinzu@@
nicht@@
prohi@@
stag
Café
Doppelzimmer
erend
Finde
vorzunehmen
Empire
nä@@
describe
layout
auff@@
studied
blan@@
arium
collabor@@
gering@@
Sun
Vorsitzenden
bility
Valencia
Tou@@
erteilt
Orten
werks
legitimacy
Sz@@
LCD
Denken
Zweiten
pression
enjoys
LAN
iPod
entfernen
html
Viel@@
hervorragend
shortly
violation
Read
Ausbau
addi@@
instru@@
tagen
verl@@
eien
roll@@
garanti@@
Aufzug
fried@@
technique
Ratschlag
Times
FI
Unions@@
inter
Cir@@
kür@@
campaigns
Deutschlands
staat@@
ide
staying
Wit@@
25.
chter@@
Tieren
constitutes
HU
grund
Studi@@
Fahrer
Werden
vorliegen
superb
Migration
für@@
iron
wind@@
unch
ille
Einer
Employment
Jac@@
occupation
busy
num@@
Inform@@
Blair
os@@
mehrfach
whereby
Km
chapter
bought
alter@@
studi@@
Serbien
ierungen
steller
ownership
Peti@@
LT
poker
entstand
Vereinigte
Anbetracht
berger
iss@@
tent@@
verwendeten
mäßigen
eingebracht
ow@@
vacc@@
medicines
frequ@@
carte
clicking
klin@@
quellen
appar@@
League
Fron@@
dlicher
anwenden
hinaus@@
südlichen
appro@@
Haar@@
Universitäten
kräften
exec@@
Moscow
ingredients
Patri@@
fern@@
sozi@@
completion
Sum@@
financed
fut@@
Objekte
12.00
collapse
stam@@
dor
Wind
VIP
Desktop
ank
ratification
dependence
eries
Event
aufbauen
Seri@@
tain@@
eht
Besitz
ght@@
baby
height
Trop@@
Politik@@
exemp@@
Bla@@
zeichnete
Gegner
Il@@
sely
dep@@
bonds
Wand@@
Samsung
gemeinsames
suggests
siv@@
Glei@@
vorgelegten
Bed@@
kostenlose
bedürf@@
desto
Unterkünfte
netz@@
Pir@@
rö@@
peti@@
William
baus
inadequate
fewer
02@@
Argument
nutzt
fehlen
verständlich
eingeleitet
translated
fam@@
hang
Ehr@@
gebühr@@
reagiert
schläge
1986
stätten
umgehen
landwirtschaftlichen
appointment
nov@@
Green@@
EE@@
130
Stur@@
Plenar@@
Syrien
Fisheries
Rit@@
Danach
keineswegs
Real@@
meaningfully
nei@@
künst@@
Lernen
neo@@
interne
Soldaten
Niederlande
Kommun@@
ändert
überwachen
escape
dent
olle
reis@@
Internal
refused
buses
ción
Feu@@
Slovakia
Strah@@
geschäft
managers
Lor@@
false
Appartement
Mängel
dual
OLAF
frequency
soul
Haf@@
trained
desirable
Palma
maximal
Wasch@@
Burg
Mini
tags@@
NICHT
atten@@
chairs
Subject
signing
gast@@
Len@@
geniessen
achtet
examination
arranged
definieren
grös@@
Existenz
stens
enthalt
urgency
neighbours
milit@@
Rin@@
Vordergrund
secondary
Zwischen
Annehmlichkeiten
Betrieb@@
Erfolge
journalists
scho@@
Bestätigung
Frequ@@
atur@@
Modul
Vermögens@@
Kooperations@@
gestiegen
losing
Volkspartei
Listings
bug
divi@@
Prof.
Free@@
tung@@
gesucht
Katalog
gerechte
Intergovernmental
virus
band@@
diving
ization
repeatedly
Num@@
Galileo
ausser@@
Bezeichnung
spon@@
foundations
Angel@@
tika
begun
gres@@
gewöhnlich
erhoben
Sab@@
pic@@
richtungen
Sowohl
underlying
electrical
olo
Nehmen
Ruf
gegebenenfalls
well@@
ship@@
shor@@
wick@@
tering
enhan@@
planen
dramatic
vac@@
Adri@@
ständi@@
Ehre
moments
enjoying
becken
Bestell@@
Rech@@
verbindung
gewidmet
Fassung
kontextuellen
Nation
ep
SK
Internetzugang
verbreitet
preferred
Nordic
economically
stärksten
entdeckst
wand
references
paths
ungst@@
kräf@@
zusehen
ancy
zugs@@
sorry
Marco
weilen
taus@@
arabischen
ection
lit@@
Arch@@
cancellation
Abfall@@
hundert
nächster
herstellen
ökologischen
diver@@
considerations
commit
logo
residential
ller
loans
én@@
Inc
ologischer
kün@@
Prozeß
affili@@
entation
beantwortet
würdigen
Main@@
inos
500@@
Spre@@
URL
ehm@@
trieben
han
wai@@
arts
1945
sozial@@
certified
Revision
NEW
euer
Kredi@@
exist@@
chts@@
grammatically
ausgehen
instrumente
deserves
Kit@@
bahn@@
dateien
üblichen
contextually
ausländischen
politi@@
gefährlich
Together
gesetzten
hinzufugen
moreover
boasts
cken@@
umfassen
stärk@@
herzustellen
prefer@@
tory
venture
segment
welle
verstehe
grammatisch
d.@@
erleb@@
bekann@@
kontextuell
unt@@
Dur@@
rev@@
enne
expanded
behand@@
logic
hence
Champ@@
erie
Export
leiter
echn@@
UNG
partial
Kie@@
günstigen
östlichen
Wednesday
cious
suche
schung
loaded
newsletter
Konvent
professionellen
falling
Filter
Fans
Speicher@@
Venedig
pft
tätigen
Erwachsene
ausgegeben
solved
compete
conciliation
ku
hochwertigen
Schlusselwort
Schlusselphrase
Mir@@
eder
genes
jek@@
BI@@
innovativen
aufgezahlt
genuinely
GO
akan
trags@@
sovereign
FC
höchst
parlamentarischen
kas
Hof
offiziell
freier
hinzugefügt
Gibt
veröffentlichen
Moder@@
lette
ruhige
glichkeit
Entschlossenheit
Section
maj@@
sizes
Ltd
saal
regionen
sco@@
sig@@
bearbeiten
plug
isse
ized
betre@@
principal
Konzer@@
Publikum
prozeß
coastal
perf@@
fascinating
erwiesen
withdraw
Copyright
Werkzeug
VI
loses
Val
folder
änge
Att@@
BER@@
od
Leit@@
gegenüber@@
zusetzen
Heimat
tat
Commerce
по@@
stör@@
lor@@
ota
Hit@@
timetable
Ministry
cope
beteiligten
bigger
alls
CF@@
FT@@
ento
Kön@@
Steigerung
berichtet
reads
foremost
informal
zent@@
angehen
kungen
guaranteeing
gy@@
cle
Klassi@@
Rechner
Autor
Kompetenzen
allo
observe
Net
BM@@
besonderes
Lateinamerika
gift
Stri@@
Gebühren
bedroht
fare
comparable
Kaffe@@
31.
Ablauf
Spaziergang
debating
unnecessary
pol
1987
Leben@@
Eines
erheben
Chief
Wen@@
Gir@@
intensiv
representing
eux
erstes
Atlan@@
textile
7,@@
gige
apparent
atom@@
Insgesamt
Aspekten
maßen
gestatten
fell
Premium
hilfreich
Genau
1985
smart
bürokrati@@
Jon@@
po
strike
listening
quest
drin@@
Med@@
Prag
direk@@
generell
Erreichung
blind
Düsseldorf
vollem
existieren
grenzüberschreitenden
effizienter
splendid
History
Können
prev@@
suited
ziel
Work@@
Sachver@@
derart
fire@@
destroy
Physi@@
mung
öffentlicher
Eth@@
Hen@@
M.
betriebe
characteristic
ds@@
travellers
presidential
Einsatz@@
elegante
erkunden
thorough
codecision
designer
möglichkeit
genauer
rated
Corporation
vocational
Durchsetzung
subsequently
Jan
leh@@
hielt
bruch
größter
Ratifizierung
deut@@
wachsende
Modern
intentions
sensi@@
Projek@@
Sekunden
Lehrer
examined
openness
Greens
INE
paket
proz@@
konsequent
Gruppen@@
bewußt
pensions
Morocco
Anonymous
engen
Dynamik
beispiel@@
gewicht
bewegt
ander
Youth
angle
thumbnail
Europa@@
Lohn@@
Verkaufs@@
Schicksal
ring@@
Direk@@
finanzierung
Patten
Clinton
Berei@@
langem
thy
ahnen
blick
viewed
niedrigen
Several
Schau@@
Weltkrieg
widmen
zahlt
elektronische
Versprechen
Garantien
arily
speeches
bird
Verbrauchern
onic
human@@
situ@@
Class
GP
anten@@
reibungen
löschen
Lev@@
tum@@
Cr@@
technisch
featuring
branch
ähnlichen
alternatives
civili@@
Up@@
seln
Kau@@
Luxus
Modus
förderung
nehme
Montenegro
AP
Vorrang
atta@@
respects
dend
pay@@
lock@@
hotel@@
Kopf@@
Slowakei
stern
kurse
vertraut
GUE
ample
expenses
sample
Nich@@
Brücke
Abteilung
standes
purchased
bewegung
Ausrüstung
External
vary
cookies
hafter
schriftliche
Kommentare
grand
ref@@
spot@@
cit@@
yo
kit
Bekann@@
24.
Australien
ava
terrible
adult
UM@@
Behörde
ethical
schwedischen
hohes
gewis@@
fifth
turns
inclusive
Ros@@
verkehr@@
Pflanzen@@
Solana
Partnership
zweiter
autumn
Arts
Rennen
importantly
Install@@
ña
günstig
kunden
Ursache
kleinere
Anmerkungen
Growth
weichen
Konvention
pt
Forsch@@
Ausblick
interess@@
dieren
dog
Alps
hop
Sports
Rechnungs@@
Seele
beibehalten
arrangement
trouble
behauptet
Entwicklungshilfe
simultaneously
devoted
Institu@@
früh
alistischen
afford
condemn
Run@@
violent
Heads
Francisco
Symp@@
agen
Team@@
Menschheit
genau@@
schwi@@
lively
erfol@@
pain
gste
Verwal@@
innere
Fleisch
Haushalts
stones
posts
fresh@@
ware@@
ат@@
könne
Bosnia
Schle@@
vertra@@
überrascht
Gemeinden
broader
tragedy
iso@@
Schil@@
Aktu@@
sichert
jährlichen
jointly
fter
slopes
ress@@
Lager
Für@@
zugeben
Häfen
erwerben
spectrum
Klarheit
Village
Bevor
earn
relief
residents
Schulz
abo@@
Ry@@
Program
Visa
liz@@
klein@@
artige
integrierte
Rü@@
Def@@
Drei
Nichtraucherzimmer
verurteilen
optional
Governance
Frauen@@
maß@@
Aktivi@@
erkennt
zeigte
jurisdiction
Game
Hör@@
Edel@@
gehörige
Tun@@
Ashton
mein@@
papers
tragic
acceler@@
hou@@
instantly
fahrzeuge
complaints
Water
Palette
Palestinians
Ford
affordable
any@@
desktop
frü@@
rieren
erheblichen
Micro@@
sender
Storage
falsche
fangen
Herkunfts@@
anzuwenden
mur@@
Laden
nahme@@
wirklichen
delete
elen
Edi@@
Gy@@
gemütliche
Strom
С@@
vertrau@@
survey
composed
DR
bits
ARE
Third
ichten
Samm@@
wel
azi@@
Pak@@
behavior
auswählen
End
onia
Baden
Lad@@
fa
authors
Press
Gö@@
vermittelt
Aussagen
gebenen
Statistiken
viewing
Left
accuracy
electoral
Clubs
Ausrichtung
fünf@@
EIB
Hände
getreten
deep@@
Regen@@
tribute
Ideal
Designer
angebote
geringen
clarity
lights
schwan@@
Fortsetzung
spanische
deci@@
var@@
ENT@@
jahr@@
gingen
Quell@@
unterschiedlicher
adap@@
manufactured
nel
τ@@
erteilen
Ereignis
alled
cio
veran@@
ckets
argue
stil
Haiti
xe
Past@@
Wett@@
kostenlosen
aush@@
anzupassen
twin
accordingly
Keine
Beschränkungen
vertritt
Bergen
Publi@@
beach@@
gkeits@@
mand@@
actor
sw@@
atik
Tickets
mechanical
counts
Spor@@
IR
Block@@
eure
begegnen
spots
Gui@@
IBM
excursions
teilungen
Kommissionspräsident
commerce
evi@@
certification
progressive
ool
Original@@
bewertet
umgehend
amending
symboli@@
bag
position@@
Vertrieb@@
solch
Ents@@
mäß@@
stands@@
Wichtigkeit
Order
En
ruppe
Vorgehensweise
destinations
width
inneren
nisses
voters
1970
Updates
forgotten
stering
russische
wheel
zin@@
Stan@@
gü@@
red@@
Over@@
measurement
biom@@
sport@@
Library
Arti@@
Bestellungen
beweisen
beabsichtigt
ideally
dien@@
sunny
Fast
Uns
Export@@
lüsse
ceiling
ester@@
terin
verursachen
chemische
treas@@
oppose
affecting
finds
denti@@
faire
som@@
isti@@
Eink@@
Kenntnisse
erstens
aled
revised
gab@@
politiken
einsch@@
fungen
Werkzeuge
prospect
Index
calendar
accessories
publish
orientation
transaction
promoted
centers
Cl@@
natur@@
Tei@@
geren
sake
interven@@
techni@@
Kein
univers@@
Glob@@
Weine
üsse
Alternativen
bud@@
Ministerpräsident
Amerikas
inspection
rez
California
reibungs@@
answered
icht
ektion
regionaler
premi@@
HP
vermutlich
Plätze
Wahrung
stopped
Language
blicken
afraid
fts
knew
schnitt
lassung
öse
Gesicht
Rückgang
governmental
yers
honest
Prot@@
authorized
Mobil@@
Netze
materi@@
Cin@@
Betreiber
Problematik
design@@
preserved
Fli@@
Offenheit
Südo@@
dev@@
Afri@@
Southern
Zurich
ax@@
ml
Massage
Bewusstsein
fragt
Laut
Lieferanten
erarbeitet
befürworten
recall
modify
arri@@
buying
urg@@
eth
Ale@@
Halle
davor
Felder
viable
doubts
rational
inge
last@@
Wissen@@
stattgefunden
Aufhebung
aching
sogenannte
komplexen
specially
esa
pa
Jun@@
instruc@@
üh@@
ан@@
egen
wirft
komplexe
Nachdruck
ensu@@
renewed
Add
motorway
deutliche
FR@@
patri@@
holder
nobody
removal
Côte
tica
übt
populations
assurance
Kul@@
Betracht
KG
Bett
gebäude
äder
medizinische
flexibel
Festplatte
schutzes
basically
coal
chat
Brü@@
Coun@@
ALDE
ь
Südafrika
judge
perio@@
Techn@@
motivi@@
respektieren
essing
winner
Cross
ika
ien@@
LED
Kennzeichnung
arbeiteten
Inhalten
Force
main@@
continuously
Ander@@
alty
sofa
fuhr
Liberalen
Protokolls
kombiniert
EV@@
Bü@@
Ferienwohnungen
Produktivität
closing
hn@@
klären
lebenden
whatsoever
ective
tier
Schü@@
teln
Fed
SDL
derungen
jüngste
präzise
tips
angekündigt
refuse
stressed
Otherwise
pair
Docum@@
sculp@@
Tief@@
expressly
Imm@@
CR@@
Fang@@
Immer
gelegenen
zustande
harmonisi@@
Bevölkerungs@@
adjustment
evo
Million
nötigen
traum@@
ständiger
umfangreichen
conversion
focusing
integrity
Stau@@
focuses
aktualisiert
derselben
Mischung
Risiko@@
tatsächlichen
SL@@
Bay@@
dien
Berich@@
Finnish
chose
stet
sischer
tas
¶
gemessen
Zerstörung
gieren
attended
sul@@
ystem
fik@@
Garten@@
Weiterhin
auswirken
soldiers
painting
entran@@
Zielsetzungen
BS
Mode
Schö@@
Besu@@
abgesehen
deadline
uneingeschränkt
Bauern
tower
Kürze
gradu@@
ESS
ausgestattete
fortsetzen
Chancengleichheit
Einzelheiten
tia
Olympic
power@@
enor@@
ел@@
beinahe
erweisen
ichte
Stahl@@
Übernahme
Großen
Drogen
installations
ecks
noon
officially
Milan
zzo
terminal
zip
Köln
Wireless
vertrauen
publishing
ners
9001
zentraler
endgültige
miß@@
erforderliche
Diesen
formuliert
Representative
gepf@@
Reinigung
einst
credible
gebung
ehmer
vorliegt
eve
tone
aan
Illu@@
Heimat@@
Jahr@@
Seiten@@
typisch
Zuverlässigkeit
deaths
wise
Abbau
plane
quantity
But@@
TM
Minderheit
Schreib@@
erleichtert
Wünschen
belongs
bac@@
Handy
1,5
Country
healthcare
rela@@
dimensions
visits
Bauern@@
Zeitplan
Prize
researchers
cop@@
ро@@
transitional
typically
bedro@@
pit@@
anna
CC
Spi@@
Minister@@
isierung
siven
occupied
break@@
å
Sac@@
keiten
Poker@@
bezeichnen
Lebensmittelsicherheit
vorsieht
uncertainty
aggres@@
Clar@@
tropical
spüren
grenze
mechanismen
delays
Verheugen
Kün@@
Zivil@@
Georgien
tension
Comple@@
steuer
declare
hing
monuments
Automati@@
Wich@@
drängen
relaxed
lei
Mutter@@
religiösen
alise
Sav@@
oli
kampf
erische
Alters@@
Cologne
Defence
W.
Zucker@@
österreichischen
begründet
observation
deserve
emerged
burger
brands
s.com
verpflich@@
erwähnten
contra@@
signals
verz@@
ausländische
Händen
Gewinn
promising
pressed
arrest
Quad@@
Lieb@@
einiges
Steuer
gemütlichen
fairen
anerkennen
baut
Kurz
geehrte
pack
institution@@
tivi@@
Trend
missed
xed
privileged
facto
ehe
alli@@
throw
arte
Contact
α@@
Ausnahmen
pattern
literature
Herkunft
emphasi@@
insp@@
ignore
CO
rufe
granting
liter@@
Tampere
marking
surveillance
eg
CH
beef
virtu@@
distinction
issen
gerung
Wiederherstellung
Brau@@
territories
standardi@@
Fitness
Sä@@
Zunahme
Erarbeitung
Wettbewerbs
persi@@
geeigneten
greif@@
saf@@
exhi@@
Fisch
Versand@@
Eröffnung
geringer
DV@@
organize
t.@@
lös@@
leistet
Gute
22.
trenn@@
Zimmerbeschreibung
Democratic
Beijing
Ms
Asi@@
movies
Pum@@
Sound@@
Weiß@@
Bureau
symp@@
ökonomische
Klimawandels
ratio
Sto@@
Mar
ax
kehr
lossen
Richter
ado@@
oll
kurzer
Taten
angenommenen
explicitly
posted
Cast@@
herum
formular
kanische
gestartet
Rechn@@
marktes
verabschieden
Weltwirtschaft
Mem@@
chers
18th
Freizeit@@
verstän@@
Bridge
Theorie
Landwirtschafts@@
duration
jed@@
GE
küste
Anreize
2.5
Argentina
ure@@
isten
Fahrzeug
dring@@
brauch
dienstleistungen
dings
arrange
Taliban
Inn@@
getrennt
23.
Verfahrens@@
Verfahrens
Ech@@
Baum@@
verzichten
newspaper
bili@@
schedule
deficits
1979
stops
verwiesen
Umstände
eleganten
140
recession
Parti@@
stö@@
arbeiter
abe
fikation
aufnahme
achievements
platten
erneu@@
verteilung
nehm@@
mines
gon@@
Logik
civilian
tery
Föderation
ems
ful@@
aks
precision
emer@@
Empfang
Hafen@@
faszini@@
gemä@@
schied@@
advise
rey
&apos;d
erstreckt
zeichneten
alisten
whenever
convert
Hä@@
automotive
Kernel
übermitteln
Fremdenverkehr
realisiert
greenhouse
pris@@
neighbourhood
moderner
musikali@@
Zus@@
zugestimmt
catalogue
undertake
exhibitions
Mails
Urheber@@
einhei@@
erarbeiten
Гј@@
feder@@
t-
Fak@@
Nachmittag
wunderschöne
hört
gert
eting
institute
split
Millennium
eder@@
pper
Olymp@@
gebühren
wahre
beneficial
revealed
identification
mig@@
hire
Lot@@
gehabt
verbindungen
Bürokratie
inary
technischer
frequent
passion
rac@@
Feuer@@
esten
Bosnien
Betrifft
ruling
zio
sailing
cus
Sex@@
liegende
Terroristen
Fischler
facilit@@
freight
cameras
IA@@
freu@@
extra@@
Wat@@
Bud@@
publications
SD
Funktion@@
untern@@
verschaffen
sibility
gram@@
anpassen
Part
300@@
weit@@
wol@@
Mot@@
unterbrochen
DP
schie@@
Kreuz@@
Derzeit
trieb
tausend
employers
Nav@@
Daniel
argum@@
felder
gelernt
zimmern
Verordnungen
ophi@@
nos
iti
drives
accum@@
absurd
nur@@
ops
UND
angenehme
medizinischen
neutral
umso
planung
Einnahmen
kohär@@
certificate
vals
Schnell@@
en.@@
theater
glaubt
Privatsphäre
kriterien
industriellen
FOR
Solutions
Vie@@
Bonus
қ@@
dieselben
obligator@@
thro@@
negotiated
trains
Bonn
eindeutige
weis@@
spielte
Glas
Übersicht
dieselbe
funktionen
fuhren
gemeinsamer
mechanismus
editor
Schuld
verarbeitet
ursprüngliche
Objekt
machinery
Provi@@
eled
Double
tol@@
preparations
precious
diagno@@
Oc@@
Easy
Dok@@
streben
Finanzen
empfängt
genießt
ame@@
Gil@@
habt
prinzip
Recht@@
Formulierung
ION@@
unusual
threatened
olog@@
CAD
certainty
mmen
retten
Referendum
Wikicars
Händler
interessanten
sicherer
prestigious
hem@@
wars
Dokument@@
verzer@@
cycles
Experim@@
academic
ür
vereint
Rural
prevented
J.
dahin
Kuba
cancelled
premium
Industrial
pak@@
v.
nete
postal
returns
3rd
realize
eröffnen
Presidents
necessity
deu@@
interactive
alla
ollen
Lich@@
zurzeit
Verfolgung
Ausbeutung
tels
ingu@@
Reich
dres@@
retail
Intel
innen@@
schenken
predic@@
lac@@
т
Binnen@@
kritischen
fron@@
sensor
debated
reflection
senior
zi
Proz@@
promenade
Raums
indicators
visi@@
enza
geringe
jeglicher
Erhalt
ext@@
ratified
tner
här@@
dasselbe
Handlungen
eigentliche
notably
ér@@
concerts
alistische
zugelassen
blieb
gehe
lion
taxpayers
dez
flying
mail@@
geld
vermieden
utes
Inclu@@
seg@@
gend@@
bereit@@
Gut
Haushalte
proximity
Tarifa
EW@@
zione
Ausgrenzung
zwölf
Tower
Until
à@@
claimed
ebt
entlich
remin@@
inci@@
fications
Rh@@
feedback
Tari@@
Bühne
gegenseitigen
drückt
Themen@@
Verabschiedung
suspended
act@@
öffnet
leichte
kredi@@
unknown
dio@@
Nation@@
gla@@
Rab@@
PER@@
Hour
eits@@
Begründung
rung
Augen@@
hunder@@
zones
intelligence
Tradi@@
resp@@
err@@
aufgeführt
Gewinne
tigh@@
opt
rage
pop@@
mass@@
alien
D.
sandy
durchzusetzen
erlangen
Sri
telecommunications
negotiate
Bill
eted
Everything
й@@
zwischen@@
zeichnung
alike
ef
Automobil@@
Kü@@
tauchen
beruflichen
edy
performing
archive
ë@@
Chr@@
methode
nem
orientierte
pet@@
agen@@
tle
tus
lten
relevanten
feste
purchasing
edo
parameter
ann
elf
cali@@
Fremd@@
zunehmende
releases
oration
spektakul@@
niedri@@
Scotland
Select
eva
fitted
Lun@@
Summe
komfortablen
protest
brut@@
fahrts@@
Voyager
klimati@@
äum@@
plätzen
läufe
ple
toilet
Mittwoch
harm
mir@@
SMS
körper@@
integrieren
Consi@@
vable
Hussein
Dum@@
verarbeitung
behandlung
sonstige
gewünschte
consistently
ears
patterns
oli@@
befürwortet
tioned
mistakes
chemicals
Renaissance
handels@@
beruhen
admi@@
logistics
Gewi@@
Ref
replacement
mün@@
Kabel
Stufe
José
Leiter
admit
humanity
maps
360
decor@@
ec
como
berührt
Versuche
kleineren
tigem
rischen
staatlicher
Spannungen
nationals
architectural
Strasse
Jugendliche
transit
ony@@
ida
wärts
amente
Digital@@
änderungen
ressourcen
heavily
gang@@
Außenminister
Satelliten@@
organisierten
Kapazität
Menschenrechtsverletzungen
insufficient
zweck@@
justify
Lul@@
2014
Minibar
Charme
aufgestellt
fails
innovations
dollars
heated
statisti@@
Cit@@
Ass@@
ago@@
Sant
potenti@@
wies
meldung
Funktionieren
terungen
führungs@@
Distri@@
einstellen
NGL
neg@@
Holland
photographs
landschaft
menge
fiel
Angabe
ato@@
announce
Gallery
trags
step@@
späteren
entlichen
rever@@
05@@
comprises
Os@@
éri@@
heit@@
lovers
connec@@
bahnen
passieren
Meinungen
gebau@@
Wesen
schreibt
jun@@
Jacques
alisierungs@@
Anzeige
Wälder
Abgeordneter
oth@@
favourite
heutzutage
Risi@@
fün@@
placing
subscribe
lah
Wald
machten
Marokko
Rezession
moves
Peace
leidet
Tabelle
Fair
ffe
Kontra@@
allocation
breach
dominant
generous
pum@@
evaluate
Alpen
luss
doppelt
Schrift@@
anforderungen
imported
Belastung
Rechnungshof
Istanbul
ison
Van@@
schein@@
Monti
tages
acquisition
stro
glo@@
etry
gerechtfertigt
Zahn@@
Spektrum
normen
eing
enta
boden
zehn@@
konkur@@
einzig
höchster
spare
CS@@
Intervention
wünscht
comb@@
terer
stücke
Wellness@@
citizenship
withdrawal
potentially
gerechnet
abgeben
Nichtraucherzonen
israelischen
indicates
farms
mot@@
Experience
sheets
Panorama
Schne@@
bisschen
erzeug@@
gebunden
aut@@
Deep
schlechte
endgültigen
borne
blin@@
umb@@
bs@@
Call
Bewohner
bezogen
rix
Osteuropa
nachzu@@
Anträge
bedauerlich
atively
Geno@@
chief
lighting
BE@@
quelle
Aufenthalts@@
licht@@
Linien
supplementary
magic
sos
Strategi@@
judgment
Produktion@@
erlassen
Funktionalität
thanking
contributing
ope
p.@@
9,@@
problemlos
Zusammensetzung
Bürgerbeauftragten
bureaucracy
defining
displays
VE
angen@@
Wetter
apparently
Terminal
ehrlich
Fakten
unterscheidet
mandatory
regimes
Work
stant
dnis
worrying
Sup@@
authorised
robust
hesitate
intervene
Smith
Demokrati@@
gelegene
teuer
sus@@
contractual
kö@@
polnischen
präsen@@
Lobby
atten
holi@@
Sus@@
occurs
Vertrieb
zwanzig
mittlere
Neg@@
aya
beschreibt
verstärkte
tioning
solven@@
jet
aran@@
ре@@
wahl
oned
broad@@
Dest@@
Mountain
Virus
NRO
Krieg@@
agrees
rob@@
Release
kreis
ausreichende
Erzeugung
beschleunigen
demonstrates
timely
würdi@@
conservation
station@@
pling
Türen
Präsentation
Verlängerung
unions
patents
clothing
schwieriger
ierungs@@
dün@@
basieren
ues
ault
Vers@@
Tam@@
Mä@@
onien
Energiever@@
gewinnt
rose
bun@@
imposing
catering
dent@@
Beamten
slowly
harbour
tial
lis
ind@@
Erfol@@
herunter@@
May@@
Getränke
29.
terien
Versorgungs@@
Beurteilung
writer
book@@
airline
Anbindung
lem
KOM
geräum@@
ähr@@
Fischereipolitik
ärmsten
gements
caught
silver
TNG
verliehen
initiated
legitim@@
scar@@
reform@@
Lebanon
sende
einführen
Spezialisten
Look
Dri@@
gelegte
wertvolle
pays
rub@@
Conditions
trop@@
Saal
berufen
mers
Mani@@
laser
Tol@@
austausch
Palästinen@@
Einwanderer
Pflichten
whi@@
mien
downloaded
wen
esi@@
gehör@@
Medikamente
Unternehmer
sanc@@
bab@@
boxes
Photo@@
Hoh@@
Beste
ны@@
abgegeben
Audio@@
gratis
ott
orien
favorite
schlech@@
viert
derjenigen
Erwägung
cooking
erb@@
Früh@@
geplanten
demokratisch
ablehnen
snow@@
transformation
stran@@
Ric@@
equity
ht@@
Bli@@
beeinflusst
organisierte
einstimmig
tise
pru@@
Koh@@
Iranian
Route
Menschenrechten
Register
DI
Traum
differenti@@
fting
streaming
Israelis
rats
aces
SH@@
ekt
coordinate
pho@@
cians
Malaysia
chtige
Meister@@
vereinbarten
Friedens
Adressen
dargelegt
aring
eintreten
empfiehlt
veranstal@@
rahmen
copies
Her
sor
ktions@@
geachtet
experiencing
Jer@@
künfte
schönes
sagten
Schutzes
Energiequellen
expanding
Yugoslavia
elderly
dium
Slovenia
Ron@@
.jpg
datei
Ausübung
dauern
tari@@
Technologies
Bit@@
RI
angebotenen
systematic
locate
nic@@
1984
rest@@
anz@@
Künstler@@
Beratungen
eignen
Lithuania
£
cancel
emission
Heil@@
ösen
gelingen
drinking
aga
Rep@@
breaking
Ama@@
Ausgangs@@
englischen
tened
sech@@
realen
Liberal
wherever
æ@@
Kn@@
würdig
schiff
maximale
bigen
applicant
settled
Light
wör@@
Schnittstelle
eingeladen
Verluste
überwacht
dic
operative
Rahmenbedingungen
fahrten
Phänomen
respectively
notified
rom
aussehen
Feststellung
thesis
conventions
Santer
wages
churches
Galerie
stützen
turing
lot@@
creature
Sili@@
Schwarz@@
Produzenten
horizontal
exposure
tonnes
schn@@
icon
downtown
produzi@@
Ergänzung
Französisch
Four
tisches
investiert
qualifications
IL
measuring
converted
Bell@@
District
bedienen
Hitler
rations
Kongress
effizienten
überein@@
minimal
iel
Similarly
para@@
Excellent
teilte
älter
Gali@@
gan
prote@@
abgel@@
agt
gebe
nieren
einnehmen
unanimously
Madeira
procurement
guard
iner@@
til
r.@@
Sie@@
stattdessen
wendung
wä@@
specify
ouse
intense
26.
ahl
sek@@
Einschränkungen
geistigen
xing
semi
Tö@@
Trump
geschafft
Verletzungen
Venezuela
Nom@@
auen
Netzwerk@@
bewahrt
pursued
competences
terrorists
revolution@@
Fair@@
FOR@@
DIE
Anwesenheit
blame
disputes
eu
punkten
Gebäuden
worry
400@@
AV
Kö@@
schein
gesichert
gestellte
keits@@
EURO@@
cip@@
Organization
leitungen
Krisen
Picard
.ch
Unsicherheit
ough
aster
Geschäften
Ordner
zugute
tough
Dun@@
Brok
creativity
geni@@
plant@@
mut
büro
eigentlichen
orientierten
externe
starkes
biological
premises
Cathedral
Darfur
Arbeitsgruppe
ät
flug
Ferien
Vertretung
Steuerzahler
stret@@
undermine
collec@@
Shanghai
sonstigen
benannt
lokaler
attrac@@
emerge
autom@@
betten
reib@@
Arbeitgeber
zweif@@
condi@@
Jazz
kommun@@
28.
Dritt@@
ints
Intel@@
deutsch@@
EST
Mengen
Verfasser
authentic
Still@@
ingt
Schmer@@
acci@@
Ten@@
CP
Beschwerden
sentence
workshops
LAN@@
kostenfrei
schnei@@
jemals
Einschätzung
arom@@
Metall@@
degrees
C4
novel
Pit@@
empf@@
Betrug
directions
HS
dat
Presse@@
на@@
kommerziellen
eigenem
Konzentration
stays
Speed
Sky@@
neten
auseinander@@
streng
react
primi@@
simul@@
trans
diger
ßten
überzeu@@
Erbe
Vertre@@
Leuten
inischen
hospital
hef@@
tations
grat@@
onds
zur@@
Sarkozy
statt@@
passende
Wichtig
Beschluß
essence
coverage
platforms
Nar@@
Deposit
erien
Gärten
vorrangi@@
structured
survi@@
tranqu@@
Insel@@
geladen
vorschläge
gebraucht
appreciated
adi
kön@@
stete
pet
Verts
Amp@@
Drive
endem
erklär@@
eingeräumt
need@@
ball@@
tries
G20
nachhaltig
vielfältigen
vielsei@@
Tom
lining
Stein
bou@@
ę@@
untuk
projek@@
ernsthafte
silence
verpflichten
handled
watching
frau@@
hl
Olympus
Andreas
tube
disch
Studios
chtig
bewirken
fast@@
3000
Wirk@@
mals
unterwegs
ssa
hosts
rem
GU@@
Lager@@
ränk@@
vertreter
Radi@@
bill
alarm
spätestens
Unterhaltung
zunehmenden
insofern
handed
1967
accommodate
General@@
ń@@
Muse@@
Termin
verletz@@
gebnis
rel
ug@@
automation
vergeben
Datenschutz
Grundsätzen
birds
Which
illing
powered
Profil
fangs
camps
Technical
Anna
ules
cin@@
stein@@
Waffen@@
kund@@
Konferenzen
consistency
aded
racing
tnis@@
Drittstaaten
pursuant
continental
Phot@@
Santiago
woo@@
Ann@@
plötzlich
aturen
Communist
keeps
Seen
teilzunehmen
Fünf@@
erheb@@
lowest
ausstattung
blichen
globaler
jour@@
az
See@@
Gum@@
Muster
controlling
zah@@
Fußball@@
vorgehen
stab@@
Ged@@
DIN
License
Gebühr
day@@
Hung@@
beschließen
integral
wake
crops
headquarters
1978
visitor
digit@@
Rand
räum@@
legten
etri@@
fit@@
Glo@@
meister
versehen
verwirklichen
wan
workshop
rubber
Wiener
ligkeit
dachte
Angriffe
findings
arbitrary
Start@@
breit
rolle
unemployed
Antonio
warming
Conc@@
mie@@
erfasst
technologische
controversial
unstable
Alpha
phi@@
Bildschirm
rücken
negara
gains
politan
ο@@
iens
convince
iny
Come
intelli@@
File
kei@@
Medizin
Herrschaft
Rassismus
Inspek@@
oting
gaining
ees
Consulting
erischen
igungen
biodiversity
Learning
itäten
Feier@@
tigungs@@
Verteidigungspolitik
fulfilled
isn
gesammelt
drucken
vielfäl@@
beizutragen
erneuerbaren
fuels
org@@
Ibiza
Phili@@
ira
Editor
periode
zeitgenös@@
Inkrafttreten
perspectives
ühr@@
Kaiser
Choose
Rek@@
ography
girl
namen
völ@@
räu@@
Solche
Das@@
Snow@@
ruf
ras@@
Terror@@
solo
CL@@
Angeles
Neues
kostengünsti@@
beliebigen
bürger
Bewältigung
fold
eradic@@
Capital
vierte
tured
adjust
salon
Aff@@
org
у
automatische
demokratischer
legislat@@
hed
flag
Change
Lar@@
RE
ow
uen
Provence
ös
fehl@@
gesundheits@@
verschmutzung
inakzeptabel
plain
Right
aking
sons
umin@@
proto@@
Büros
verzeichnen
Aufnahmen
Finance
thumb
beginn@@
arische
ologisch
probieren
flicht
treaties
Ocean
ultra
kids
Konstruktion
tlinie
schaftsp@@
ruft
aktion
Mehrwert
führungen
Konzepte
graphy
Process
trei@@
gefährden
Hard@@
fenster
Merkmale
verkün@@
demokrati@@
Rußland
06@@
agent
hit@@
ret
arab@@
SW@@
Cala
oberen
Kapazitäten
fate
anony@@
vend@@
stim@@
plates
11@@
Initi@@
piano
Kreativität
ekte
Regulierungs@@
abilität
Erweiterungs@@
Güter
motions
energ@@
Tä@@
warmly
concent@@
ministeri@@
Rubrik
produkt
craft
shaped
wirkungs@@
Innerhalb
Emissions@@
ambition
Young
loved
Stei@@
paradise
edit
angeblich
respektiert
Socialists
urity
assured
genetic
eling
Maxim@@
Gespräch
Saf@@
Chan@@
substantially
explains
entries
erweiterten
getötet
sätzen
wü@@
ohnehin
Besteuerung
passes
threshold
suggestion
venue
belt
Aro@@
IE
succ@@
Itali@@
alleine
schalten
Kräften
pron@@
Gaz@@
ysteme
irische
zentrali@@
practically
gle@@
zell@@
angewiesen
lichste
weitaus
21st
ords
iche
Rak@@
fach
decent
estimate
tons
prim@@
Chin@@
schöner
wirksamen
partnerships
Gulf
enswerte
derartigen
achtung
incentive
sto
Kapit@@
basierte
Sitzungen
Ausschüsse
ausführlich
describes
temperatures
oured
dou@@
Invest@@
approx
süd@@
Äußerungen
rupt
rant
Hou@@
hte
Techniken
größe
artificial
capture
Obviously
retariat
onie
TER@@
Konkurrenz
technologischen
geräten
Unterzeichnung
Pur@@
thei@@
kontinuierlich
Konflikt@@
Subventionen
Palacio
confident
rot
vie@@
leather
die@@
Kirchen
ausgewählten
Natural
Tot@@
Zul@@
Anhörung
proce@@
bureaucratic
PK@@
Visit
ар@@
normale
Geben
folglich
experim@@
bags
Höh@@
luß
fizi@@
DS9
bür@@
Alber@@
Anwen@@
versicherung
cz@@
Feld@@
liert
ordnungsgemäß
grav@@
choosing
tail
ston
batt@@
deck
Tochter@@
performances
holes
teacher
lux@@
FS
Karriere
Gerichten
berichte
Palestine
Bit
nord@@
8,@@
feiern
Zit@@
klär@@
Geräten
Regionalpolitik
grand@@
specifications
Tag@@
Display
gefangen
zielt
Weltbank
compli@@
raises
receives
bone
infl@@
asen
esischen
Vene@@
defense
eindrucks@@
eingeschränkt
traums
struc@@
migrants
islam@@
Vill@@
bewiesen
Studium
Ähn@@
Sper@@
rus
unzu@@
unterbreiten
unden@@
harmony
inu@@
pop
Juan
haus@@
cker@@
bestens
ungeh@@
einzugehen
Wettbewer@@
Einkommens@@
vernünftige
Feli@@
fehler@@
Gipfeltreffen
dges
chens
lé@@
kreu@@
ruhiger
Tuesday
avoided
arity
bread
Beschäftigten
qualifizierte
meantime
Yo@@
Vin@@
Features
DEN
trennen
Konfiguration
deutet
erörtert
Grünbuch
specialities
gesonder@@
Abenteuer
typische
alog@@
amo
Ost
bindung
kritische
Citizens
tangible
doctor
450
ahn
favor@@
ähn@@
empfin@@
digte
Freuen
lesson
schrittweise
consul@@
priv@@
vel
Motto
ranken
Unterlagen
erfahr@@
litten
VI@@
Vul@@
dental
sorge
fortgesetzt
modernes
teilten
Übereinkommens
emphasised
disappointed
Division
voneinander
leid
Pierre
real@@
wra@@
schnit@@
dena
restau@@
kunden@@
Bewegungen
bildungs@@
glei@@
Franz
Heiligen
registri@@
angelegt
schluss
ethnischen
spiegelt
COD
drafting
entrepren@@
measured
enlarged
circul@@
outs@@
column
Apache
Frü@@
Flugzeug
Vorgaben
Simp@@
Communication
Certi@@
globalization
bene
Solar@@
Komit@@
istischer
quot@@
noticed
ily
Develop@@
lug@@
PCs
heu@@
namens
bearbeitet
tiefe
Lehren
bedauere
bilateralen
vention
talked
bank@@
ae@@
Soft
Süd
1982
mp
Differ@@
one@@
AKVIS
bilder
Alltag
regulate
tax@@
ror
messe
Word
zips
übermittelt
strange
kontrollen
samkeit
Branchen
deemed
cha@@
holders
mie
Regimes
Reader
fühlt
frucht@@
realistisch
erbaut
1975
ul
Rub@@
nah
strah@@
27.
ältere
konstruktive
thoroughly
Diplom@@
chef
Müller
schil@@
brech@@
Fes@@
frischen
Vorfeld
Head
Frank
Gegenwart
verantwor@@
ired
supple@@
pharmaceutical
isolated
cheese
ATION
dal@@
Taste
sitzung
vernünftig
Prävention
finances
Parliamentary
Tut@@
Spit@@
chambres
х
rechn@@
Missbrauch
Aktivität
vre
eh
Domain
Fernseher
NCC
therapie
lehnt
fliegen
verzö@@
schrieb
Lasten
abkommens
nachdenken
nonetheless
consult
scre@@
ost@@
Hôtel
versammlung
basierten
schließe
vorbehalten
gefährlichen
koordini@@
preliminary
liness
acquire
RS
Ord@@
battery
bereitung
Lehre
Aktien
kontrolli@@
läne
olen
sar@@
ja@@
API
ś@@
größerer
pleas@@
unlike
discipline
constitu@@
lian
lakes
signature
ulen
noten
erwähnte
bid
kin
asy@@
UM
xx
photography
Elevator
handels
Nonetheless
Sand
demographic
publicly
micro
Cav@@
develops
Bun@@
Geschäft@@
Norway
argu@@
statistical
INTER@@
neo
Climate
brain
Pass
yn
Interface
Merk@@
u.@@
geschlagen
economics
fought
rid
exchanges
Dev@@
Panasonic
musik
orientiert
stoß
inations
konzep@@
runde
irgendwo
provin@@
Cubase
Dritter
Justiz@@
Umsatz
challenging
abund@@
Iraqi
schol@@
TEN
DL@@
executed
compo@@
php
änder@@
forderte
Eigenschaft
Katastrophen
differ
ades
europ@@
ense
Tanz@@
Spring
voran
Additionally
wahl@@
griff
gelei@@
meldungen
consequently
defen@@
Zimbabwe
Ath@@
Gan@@
Wissens@@
Nacht@@
Erfolgs@@
Energiepolitik
acknowledged
derived
scenery
paintings
komfortabel
begrenzte
kritisiert
prosec@@
erre@@
einhalten
vorgesch@@
evolution
victim
Alpine
gewisser
gefährliche
steuerung
circle
shots
Tempo
IO
Wort@@
endgültig
gangenen
Fluggesellschaften
formul@@
damaged
Fore@@
ignored
incredible
Superior
rom@@
Classic
womit
örtlichen
Key
Everyone
centrally
controller
Catal@@
PRO
Leh@@
Leu@@
Barack
Schatten
і
zten
aggressive
cum@@
notion
organis@@
sses
Hir@@
ministerium
Zuständigkeiten
telling
interview
KO@@
Hannover
то@@
mäßigkeit
weak@@
fears
lav@@
characterized
Armen
einher@@
strengen
enters
manifest@@
Cold
falschen
konzipiert
beiträgt
gst
gur@@
boy
hard@@
ium
brenn@@
schlechten
aufgerufen
expressing
rene@@
acknowled@@
Hav@@
Meanwhile
flowers
Lido
cache
liberalen
Koordin@@
verbesserte
Indonesia
sit@@
undertakings
dell
Bedienung
Bezahlung
med@@
mid@@
surprising
prominent
rhyth@@
HD@@
Dienstleistung
peak
nia
founding
ça
hoped
auto
ground@@
celebrate
erfolgte
breathtaking
Philipp@@
Reserv@@
vermögen
benden
porting
Supp@@
Ball@@
fes
kultur
wiesen
grenzüberschreitende
Gefängnis
keen
recep@@
té
spre@@
Intern@@
Play
declarations
Var@@
SSL
beabsichti@@
verwalten
detaillierte
Frühjahr
checking
bed@@
score
cep@@
35@@
Servic@@
beruhi@@
Kabel@@
pfung
skilled
Dou@@
3.0
thal@@
etz
adel@@
Trends
Fähr@@
Städ@@
sexuellen
änderung
unterbreitet
Wachstums
zielen
discre@@
eras
gutem
begrün@@
Attraktionen
Mann@@
lit
Pel@@
koh@@
lon
Brow@@
Israels
confusion
Nam@@
Billi@@
Pflege
gesetzte
Regul@@
themes
Transaktionen
interinstitutional
dominated
allies
Christ
inbegriffen
Genuss
beurteilen
sustained
licence
tailored
forums
realized
konzept
Vorsitzender
Hektar
spiritual
pos
sporting
kali@@
Dikt@@
reverse
fig@@
Besitzer
erreichte
beizu@@
mithilfe
blatt
Hügel
austau@@
Flugzeuge
Subsidiarität
acquis
belonging
clu@@
credi@@
essed
kurzfristig
Ecke
würfe
survival
indirect
compare
haven
Libya
pregn@@
surfing
ökonom@@
Kongres@@
außerord@@
Tochter
abhängi@@
Vermittlung
abschließend
zweifel@@
Audi@@
Macedonia
Ep@@
login
komplex
Darin
würdige
drop@@
prohibited
restrict
connecting
bra
behin@@
deutscher
krank@@
aktualisieren
guidance
Avi@@
tolerance
mirror
guides
finest
Wille
beschei@@
Verantwortlichen
interaction
autonomy
seaf@@
Lamp@@
MM@@
ING@@
ligt
bevorzu@@
halts@@
ached
propri@@
Guinea
Zü@@
Tee
erfolgreich@@
tells
Jackson
About
fel
Libanon
wording
governed
1976
unlikely
activated
Planet
schlü@@
konsequ@@
Abstimmungen
erinnere
pf
Ank@@
negativ
Vereinigung
rechtfertigen
crystal
stati@@
walks
foods
vine
izing
reiz@@
rän@@
Optimierung
angeschlossen
ermutigen
secured
plac@@
vir@@
ünsti@@
aufgaben
verän@@
Betroffenen
ratifiziert
shortcomings
chner
Prote@@
branches
inte@@
Buffet
tec
Arbeitsbedingungen
Fif@@
estimates
CAR@@
1968
Army
Tennis
zeuge
Gewinner
unt
pan
adjusted
ousness
ions
scann@@
GM@@
vorteil@@
Verträgen
Whit@@
TE@@
gi
Buchungs@@
familien@@
begleiten
fertigt
Schwellen@@
erörtern
racism
Parks
Tourismus@@
konto
stecken
Streit@@
Reaktionen
hierarch@@
engineers
jet@@
Taus@@
Taxi
Siehe
berufliche
registriert
qualifizierten
fault
lea@@
conveniently
Advanced
aden@@
fisch@@
Bilanz
haftet
Nature
Victoria
Autoren
übergeben
mani@@
TC
Arzneimittel
chro@@
golden
Buenos
Aires
Patent
rist@@
positionen
hersteller
perc@@
centrali@@
langes
stood
149
eingerichtete
neben@@
Zurück@@
genehm@@
Tennis@@
lacking
coordin@@
lou@@
searching
Territ@@
ypen
Touren
Konjunktur@@
Futter@@
Lou@@
lean
sert
Mercedes
integri@@
Verkehr@@
complexity
anter
Textil@@
Heating
mann@@
Ufer
deri@@
Milosevic
ä
Sales
ε@@
verwen@@
Soweit
condemned
Shopping
exklusiven
Überarbeitung
föder@@
survive
Declaration
environments
HR
solide
partei@@
droht
Amtszeit
ption
rejection
Universal
married
REACH
Entertainment
beobach@@
Wiederauf@@
Vergnügen
strenge
ignoriert
monitored
Sing@@
Fro@@
akzeptabel
Schlag@@
ansonsten
Abschluß
Long
Wall@@
black@@
Sir
.The
kommende
dein
vorange@@
ausgelöst
thoughts
recycling
multimedia
flash
Sevilla
llen
zigen
Empfänger
gigen
Arbeitnehmer@@
gerweise
indication
backs
exceed
administ@@
Abu
gym
Rav@@
Luggage
Sat
treff@@
chtigkeit
ishes
qualit@@
Lanzarote
agentur
ausgesch@@
jahre@@
biegen
realisieren
Tragödie
Besuchern
erzielten
uk
tempor@@
Breit@@
01.@@
Erste
weißen
taught
transatlantic
freund@@
konfli@@
monat@@
trieb@@
Palästinenser
ety
mining
Products
Vertei@@
gewachsen
ffer
ysi@@
beschreiben
Zufriedenheit
lichkeits@@
Aktualisierung
dak@@
samen
Arbeiter
grundlegender
Anhang
gefäl@@
bevorstehenden
Ministerrat
badly
fted
aps
asy
fris@@
sums
officer
prof@@
etta
automated
FL@@
во@@
fluss
ebene
Unterdrückung
amend
infringement
Clearly
List
rier
sens@@
kos
Güter@@
teure
elemente
Sowjetunion
expec@@
Cham@@
Anweisungen
Close
inen@@
näh@@
schriften
üblich
gewünscht
ürzt
regrettable
torture
ened
ain@@
setup
Moskau
ungeachtet
Gipfels
Thai
B.@@
bischen
reiben
steckt
interessieren
Junior
entscheidet
Mittelmeerraum
outset
alliance
geholfen
tägliche
ull
pione@@
daughter
öl
bien
Freiwil@@
mad
excellence
returning
alpine
Moh@@
skep@@
Schwimmbad
tape
Budgetary
MAR@@
pin
Chef
Merkel
japanischen
unzureichend
bekräftigt
failing
downloading
Shops
5.000
deutsch
enttäuscht
unerlässlich
view@@
moderate
bian
Dim@@
aciones
zeigten
inquiry
tail@@
fur
optical
tv
Zug@@
bist
adv@@
inning
Jak@@
reale
vorn
erneuerbare
Gemäß
abandoned
5th
ria
Horiz@@
elektron@@
nö@@
Arzt
angefangen
leitet
verhe@@
gging
translations
upcoming
Entspannen
Gesellschafts@@
Metern
Realisierung
Gesprächen
Kurse
erläutern
roughly
Albania
Stadium
überwiegend
Gewal@@
kulin@@
gerech@@
vorhin
ensured
inters
Entdecken
befriedi@@
zellen
pedi@@
Hence
Beratungs@@
incorporate
tionality
circulation
dom
landes
Sard@@
RAM
Hoff@@
herrliche
Gewerkschaften
ausführen
accepts
subsidiary
shareholders
grants
accepting
jum@@
abel@@
Benjamin
lohnt
kehren
Lebensqualität
drafted
responses
1983
geom@@
KE@@
FAQ
Studien@@
grew
greg@@
crossing
fts@@
Klaus
Labor@@
Trink@@
wachsen@@
Effekte
backed
til@@
Wach@@
zon@@
händler
Finanzmärkte
exceptions
immense
feels
eco@@
conjunction
Building
Hill
Neu
Erkenntnisse
kritisch
Essen@@
sl@@
reduces
filling
seiten
Zimmerservice
Rande
Litauen
umfassen@@
departments
Cher@@
eken
Jahrzehnte
chocolate
seminars
Boh@@
Ve@@
Discover
schungen
Bewertungen
erworben
mündlichen
cast@@
bir@@
Brief
Abstand
gesell@@
Aufforderung
untergraben
propor@@
Shar@@
deser@@
Cultural
mond
Weiterbildung
erläutert
längst
Zusammen
unfortunate
Marine
ogra@@
Fat@@
D.@@
Palazzo
Archiv
Montage
bedenken
Einschränkung
Repräsent@@
Lebensmitteln
swit@@
orian
aten@@
blä@@
Beruf
invitation
attract
tious
discovery
fusion
Bron@@
quota
reinforce
erial
Luf@@
verhäl@@
beleu@@
pursuing
accu@@
assumed
inal
Peru
organ
Privacy
Konzep@@
penalties
enemy
währ@@
stätte
mitgeteilt
Anhänger
meistens
tiker
ulated
flav@@
And@@
amen@@
Oliven@@
Disk
Unabhängi@@
Mitglieds@@
Tschechischen
arge
stän@@
seits
ökologische
ICH@@
ablen
füh@@
schützt
Kinnock
ATA
bag@@
teilgenommen
gesellschaftliche
gegenseitige
Heimatland
Gestatten
demonstration
editing
öffent@@
Tisch@@
Indem
Innovations@@
separately
Working
doctors
cheaper
resorts
Danube
bal
pragmati@@
Internation@@
nette
Onlin@@
frist
keinesfalls
Abstimmungs@@
requiring
Buddh@@
aul@@
modes
Credit
trails
Stahl
Laser@@
Investition
haltenen
traum
bewe@@
Übersetzungs@@
denied
Manche
dition
delicate
onom@@
expan@@
alize
lossenen
makro@@
Erkenn@@
characterised
Techni@@
bration
kle@@
lässig@@
Wartung
ologien
Einzelnen
Erzeuger
ric
simplify
implies
celebrated
expor@@
abili@@
spit@@
Betriebssystem
irgendwelche
Gerichtshofs
Gepäckraum
jack@@
block@@
bia
â
Blin@@
Instrumenten
defects
calculated
rolling
Avenue
Dienst@@
kore@@
Renten@@
minds
Sometimes
preferences
Watch
CIA
porte@@
Medical
Inst@@
Orts@@
fizierungs@@
verwaltet
Wales
risen
transformed
signi@@
alogue
vegetables
Fur@@
ßer
bedien@@
schaf@@
reit@@
grüne
geführten
Anregungen
reductions
lens
inieren
Gerä@@
inequality
salt
undertaking
Siena
logi@@
Milli@@
fires
elson
Radio@@
bauten
registrieren
Mazedonien
defending
quantitative
Oslo
196
internationales
zurückkehren
jects
dus
m.
bands
Beruf@@
Zinsen
coinci@@
bases
vereinbar@@
örung
statten
quarters
yellow
officers
inher@@
trademarks
Shuttle
avi
Rahmenprogramm
einzelner
regierung
einzuhalten
ICE
sear@@
Logo
enorm
Herberge
niedriger
lay@@
ament@@
gru@@
NE
clothes
veget@@
analysieren
gesunden
correc@@
rul@@
gli
begeistert
hüb@@
hiermit
plä@@
ordnungs@@
stritten
eingebunden
einzubeziehen
deleg@@
enburg
evil
govern@@
Ji@@
Fabri@@
ärm@@
gewählte
steigenden
unprecedented
Coast
breaks
Above
Journ@@
exploring
Friedrich
betrag
berühm@@
abri@@
Schlei@@
anded
onal
swi@@
multilater@@
idealen
schieben
auswärtige
ertem
profound
Sak@@
new@@
ographic
Baby@@
tradi@@
monthly
ices
beträchtliche
wenigstens
Finanzmittel
securities
ore@@
thos
Sign@@
reine
vorkommen
verwöhnen
jeweilige
observers
camping
utzen
Anreise
vierten
zerstör@@
Behin@@
notwendi@@
distur@@
tip
styles
flotte
Autonom@@
ücken
RES@@
Danke
Karten@@
Ausstellungen
Scheitern
Legislativ@@
ernste
fiable
continuation
simplification
atorium
show@@
atmosp@@
Fahrrad@@
gische
Hotelsafe
Stor@@
inhal@@
heik@@
13.@@
CM@@
Kim
orten
Integrations@@
ausger@@
ques@@
internation@@
Zwangs@@
gegenseitig
respecting
lessly
span@@
hinein
aufweisen
Temperatur
äußerster
speich@@
ails
ects
ook
Dach
Büro@@
Ursprung
Auslegung
conve@@
roles
receipt
combining
tam@@
embedded
Tyrol
Freih@@
äufe
ttern
pfe
klassische
hilfen
Verbrau@@
Kandidaten@@
ältesten
navig@@
iser
Age
muy
spruch
Problem@@
herauszu@@
wendungen
Kathedrale
consolidation
brother
announcement
rain
bath@@
Service@@
nutzbar
Analysen
angeben
Übersetzungen
participated
fits
riesige
daten@@
murder
Flug
wirkungen
ilt
tagon@@
adher@@
contradic@@
suddenly
a.m.
tener
landscapes
colonial
age@@
Heritage
Wolfgang
LateRooms.com
Gitar@@
Verstärkung
Dynam@@
vieren
Autor@@
nennt
lagern
Verkäufer
exo@@
tif
oes
ò
Flotte
Kredite
Referenz@@
lehnen
Jugoslawien
Konsultation
eness
continually
spr@@
acher
reichhal@@
bliche
konsolidi@@
Ernährung
Einwohnern
owing
adaptation
tening
Kaz@@
ae
magne@@
Fili@@
Stich@@
Industriel@@
exklusive
jährliche
charter
dam
concentrated
Fut@@
Currently
dreht
arians
humans
Gru@@
Singapore
extrem@@
horizon@@
194@@
Marktwirtschaft
separated
ssel
agements
16th
epide@@
tories
Eurostat
Ring
DJ
reibung
fertigen
sprachigen
Inhaber
quantities
commonly
Ernst
bezogene
wäh@@
Umweltschutz@@
Entschließungs@@
Absichten
rs
profit@@
Stro@@
tliches
einziges
verträ@@
Haushaltsplans
Naturally
Ré@@
mysq@@
einig@@
annte
newspapers
of@@
Camping
orte
ï@@
bench@@
linguistic
kill
Tunisia
weekly
Chicago
Moderne
klarer
interim
EEC
practi@@
quer
bathing
Excel
ju
EWG
Ratsvorsitzes
identical
Program@@
qualitative
excess
unlimited
gos
ahr@@
weiterzu@@
engagi@@
erhö@@
beider
verkauf
reiterate
ergy
compatibility
derog@@
radiation
shire
partic@@
Gl@@
Schnei@@
verhältnisse
birgt
Ein-
enfalls
Lösungs@@
Azer@@
distri@@
cca
deinen
Wochen@@
weigh@@
lager
löst
wiederhol@@
bezahl@@
digten
accused
aca
ison@@
ι@@
berechtigten
tü@@
sprä@@
eingerichteten
begangen
versetzt
durchgeführten
niederländischen
vereinfachen
ausgewo@@
GBP
sharp
bil
Partnerschaften
earned
Ast@@
destabili@@
bat
phot@@
Job
Dir
verband
ganz@@
gerichtete
verschiedensten
freies
einzel@@
beat
backing
orn
ION
vergleichen
Gesetzes
stärkeren
Palästina
banned
revol@@
Lodge
Castell@@
Tool@@
Wahr@@
Entstehung
gelang
schrieben
vorherigen
Entwicklungszusammenarbeit
unteren
kompletten
sweet
geograph@@
1973
Broad@@
nik
dlichkeit
Camp
tool@@
4th
richti@@
Geschenk
Richtlinien@@
pact
fund@@
DH@@
Juden
beeinträchtigt
halb@@
Feuer
Slowenien
denselben
analyses
solving
Premier
impres@@
enthusiasm
consisting
Limited
alive
gene@@
Gate
inia
Therap@@
Provin@@
ssigen
Verhältnisse
fertig@@
lending
lls
deleted
gebühr
gefällt
vorherige
Diensten
yl
G8
1981
PS@@
kat
Einsch@@
Berater
amerikanischer
knowing
winners
tch
cycling
Korrek@@
effektiver
investigate
orious
sson
Multi
Clo@@
DNA
Pilot@@
Banken@@
unkte
mathemati@@
1950
ids
oul@@
Vent@@
thilfe
Fahrzeug@@
Arm@@
Alpen@@
beglei@@
streit@@
zerti@@
announ@@
influenced
permanently
labels
Grande
wohn@@
freundliches
konsul@@
desc@@
sorgfäl@@
übersetzt
Kontin@@
scienti@@
partition
Om@@
Dich@@
hebt
erbar
vul@@
degra@@
votre
iere
bran@@
samer
igten
akzept@@
Migrations@@
restoration
listened
Directors
glu@@
Kron@@
wissenschaften
harte
schaden
konstru@@
sämtlichen
underline
Under@@
ule
68@@
Hz
Betre@@
genehmigt
Gebiet@@
kompatibel
Sozialdemokraten
Magic
weitreich@@
trauri@@
Halbinsel
elev@@
Lav@@
U.@@
Niemand
kennen@@
schulden
verhandeln
emotional
group@@
eating
metro@@
gaming
stau@@
friedlichen
Stattdessen
unterhalten
subscri@@
Dé@@
uty
Deluxe
dazu@@
Bedingung
ausgewogenen
EMU
Schre@@
porno@@
ova
Dy@@
ech
Kreis
engagiert
errichten
commission
tight
duction
refined
frisch
schlechter
wichti@@
districts
demanded
invested
homepage
waves
Queen
atur
Manhattan
weis
kenntnis
kommerzielle
rivers
mails
circuit
Ton
antrag
eigh@@
isolation
acking
care@@
mac@@
Mount
Eisen@@
EGF
Store
Unterhaltungs@@
längere
lück@@
sicherheits@@
tackling
etric
presentations
kus
herz@@
Hochschul@@
isiert
revenues
lief
Initiativ@@
bewähr@@
Harbour
wire
Altern@@
Fleisch@@
erhol@@
Temperaturen
Swimmingpool
Eigentümer
abwechslungs@@
ete@@
.-
Ress@@
Vorsitzende
urban@@
rescue
alia
1960
mieten
distribute
ecke
brutal
Well@@
ank@@
rows
Love
sightseeing
Kohärenz
loo@@
FF@@
culinary
tico
founder
.-@@
müh@@
zuverlässig
Perspektiven
Ausfahrt
Verbrech@@
amtierender
Caribbean
warranty
ernden
portugiesischen
abzielen
specialised
Rather
featured
rative
teria
Soli@@
Chat
Kanal
aufgehoben
schneiden
Vizepräsident
verehrten
ambitions
render
inser@@
Bali
gebrochen
bevölkerung
Mehrwertsteuer
durchsetzen
Quoten
cat
utter
Relations
Print
IF
fizieren
einheit
gehörigkeit
vicinity
tiny
anger
wak@@
rice
Lit@@
query
gekauft
vermis@@
Skla@@
bekanntesten
Berichterstattern
ee@@
ign
17th
short@@
maker
carrier
Holy
pren@@
rank@@
Reb@@
Flüge
Sky
nen@@
Bisher
Ausgang
Beendigung
größt@@
partially
oods
currencies
Isol@@
sont
niedrig
Geschäftsbedingungen
Aussichten
wirkung
Opfern
intoler@@
ians
complimentary
Massa@@
Marbella
aktivitäten
ensystem
eira
radio@@
Info
jan@@
Überwachungs@@
Leidenschaft
Unternehmen@@
bedingt
bewertung
Govern@@
modest
gent
ake
tom
Cour@@
competitors
aran
Ero@@
Eurex
kommens
striking
rane
OP@@
hausen
zahlreicher
Ereignissen
Kernkraft@@
Randlage
discrimin@@
episode
leg
bricht
Zugleich
irgendeiner
vorsichtig
rum@@
Import@@
nick@@
SV@@
verbrau@@
configure
BL@@
Bluetooth
Europä@@
Befehl
Partei@@
beseitigt
gleicher
wofür
Zins@@
socio
Future
deny
problemati@@
Henry
FTP
Schwan@@
auszuüben
optimum
formula
1974
cha
ace@@
Ben
ffene
zerstören
häusern
Could
Elite
Sym@@
Deut@@
glück@@
Beobachter
clearer
Jews
emble
festivals
Nä@@
kunst
überlegen
reduzi@@
gefasst
Besonderheiten
explicit
alling
repe@@
dangers
rors
alp@@
Ruh@@
projekten
multip@@
sent@@
Monte@@
Fis@@
Schmu@@
Koordination
bestimmung
schlimmer
authorisation
embar@@
arrested
Berlusconi
Toi@@
gäbe
Textes
personenbezogenen
führender
differently
sad
Fund@@
fet@@
nau@@
hosting
Connec@@
Bug@@
schnitte
rasche
rachte
toi@@
ungarischen
drück@@
diesmal
ulieren
verwand@@
schaftlichen
schlage
agieren
Fehlen
pending
tab
ttes
faßt
employee
cultiv@@
ris
hs
Kup@@
Himm@@
einheiten
diensten
Mid@@
mono@@
luggage
ys@@
Wör@@
uliert
Auseinandersetzung
jähriger
Eigentums@@
unterliegt
eingereichten
tensions
investing
talent
twelve
cinema
ego
menten
tausende
europä@@
effektiven
advis@@
Algarve
aterie
Dienstag
Ernährungs@@
obtaining
asks
household
Minimum
Terra@@
ит@@
bew@@
finanziell
gebilligt
Armuts@@
flat@@
mos
ologically
goo@@
villas
programmi@@
zungen
aufeinander
motivated
fifteen
coalition
contributes
eco
GM
Portu@@
berg@@
begrenzten
türkische
gabe@@
elabor@@
anxi@@
independently
Adam
vermu@@
Whirlpool
Aktions@@
Szene
verstoßen
ignorieren
einzurichten
repa@@
activate
weapon
Prestige
profiles
Theatre
Nan@@
was@@
straßen
Ankündigung
Implementierung
Gelegenheiten
WHO
ş@@
Passagi@@
zusammenzuarbeiten
Annual
terror
distinguished
dged
zin
aket
Luftfahrt@@
mitzu@@
exploit
divide
forwar@@
Monitoring
sey
ASEAN
refurbished
geho@@
UV
zent
idealer
Granada
test@@
MD@@
ambience
usses
Blut
railways
struck
notification
distribut@@
tali@@
seminar
Listen
dive
män@@
Material@@
wenigsten
inspiration
Loch
enha@@
gerechten
ausgelegt
Tatsachen
biologischen
Einheiten
shr@@
surplus
lifestyle
palace
singer
Outlook
cam
pis@@
technologie
regen
müsse
einzelstaatlichen
hoc
removing
bears
emin@@
seekers
Estonia
teri@@
gericht
Acht
vielfalt
Blick@@
Variante
upgra@@
ynn
magnetic
Impulse
Chr.
liesslich
Kluft
nowadays
scenario
witness
fat
grave
congratulations
yle
bey
washing
SK@@
strö@@
unmittelbaren
Architekten
Weihnachts@@
belegt
Charak@@
verhandlungen
permits
SIS
conscious
Dau@@
Kamp@@
zumal
Internetseite
Marketing@@
Spuren
aufwand
finanzieller
furthermore
recover
170
Hur@@
jec@@
hop@@
Timor
reb@@
scenes
más
materialien
schwerer
investigations
stakeholders
strive
extern@@
dogs
Spirit
junger
Reichtum
Bremen
capability
transmitted
Water@@
ritt
punk@@
Wetter@@
Küchen@@
sexuelle
ermitteln
Legitimität
größtenteils
jud@@
ocean
jer@@
gross@@
Histor@@
biger
DVDs
Gelände
Grafiken
verleiht
verankert
befürworte
insu@@
trademark
mailing
nobyl
gathered
esp@@
Apo@@
versi@@
Facebook
Begriffe
erlau@@
Aufwand
Kommissare
accountability
refugee
translate
eption
Qui@@
Plug
Photo
Zauber@@
erw@@
anspruchs@@
encounter
rang
Segel@@
ALL
einzigartig
Formel
Arbeitsweise
glücklich
gewiss
ticul@@
attri@@
constraints
CNS
Ris@@
Psych@@
Beru@@
satzes
Organen
Verzögerungen
margin@@
torate
enrich@@
dup@@
на
Zut@@
Fragestunde
jahres@@
wissen@@
nin@@
databases
Que@@
Ras@@
boarding
lows
15th
Starfleet
emissionen
freiem
hide
Anders
reicher
weren
gäste
Gew@@
gerichteten
albeit
Loc@@
igkeiten
griechische
regelmäßigen
Tendenz
aufrechterhalten
themati@@
Summer
Bad@@
dner
Verein
Beweise
intensiven
appreciation
ultra@@
Nazi
Moldova
appen
sendet
stärkt
anen
ouring
TA@@
harv@@
intim@@
elite
younger
Mary
TV@@
Them@@
Bür@@
Genf
streichen
versuche
Elementen
laboratory
sim@@
70@@
mn@@
Verzögerung
Große
Gegenstände
endete
Untersuchungs@@
abolition
panels
Semin@@
höh@@
besetzt
Erika
assessments
fruits
preventive
argued
vez
É@@
perman@@
Origin@@
rift
Christen
Eintritt
tigten
veranstaltungen
landwirtschaftliche
Forest
Adriatic
clou@@
I.@@
kas@@
С
Aufruf
üben
nördlichen
Installations@@
Wahrscheinlichkeit
gear
Prac@@
Euros
Fot@@
Geschle@@
verbesser@@
ansch@@
Zahlreiche
deta@@
pride
Ce@@
Delta
stischer
energie
Vergleich@@
Vorbereitungen
Zugangs
capacities
sse@@
communic@@
Reak@@
zustand
stabile
Inneres
Entschließungen
ströme
electronics
joy
Ear@@
Tokyo
128
Konflikts
klares
dauerhafte
kontroll@@
Komplettpreise
dentally
hist@@
stimulate
News@@
cool@@
GF@@
malerischen
orient@@
influ@@
36@@
ld
Muslims
Tap@@
hyper@@
designers
ovo
2,5
Offizi@@
neueste
Zwecken
Arbeitskräfte
Libyen
bereitzustellen
Tunesien
damaging
aer@@
laying
EVP
verschi@@
Awards
gels
Engine
mengen
vielfältige
angehören
Stabilitäts-
ury
T.
Commander
ital@@
Plugin
charman@@
Sternen@@
denkt
gelöscht
stunden
gesunde
Hierbei
schnelles
pes
ege
Continu@@
dari
andt
kilometers
Ameri@@
heb@@
Trennung
Seever@@
Argentinien
zutiefst
profitable
observations
speaks
feelings
odi@@
dago@@
ular@@
Zo@@
HR@@
MAN@@
verliert
ignor@@
Master@@
zö@@
schön@@
städ@@
dä@@
geltend
Integrität
Christdemokraten
boundaries
amin
Luxus@@
Frage@@
konstruktiven
Glaub@@
Ful@@
vels
authentic@@
Andr@@
ellem
einmalige
Öko@@
unterstreicht
taten
disman@@
spons@@
master@@
igrant
alis@@
indigenous
climbing
gni@@
Aktiv@@
Dich
nützliche
adequately
veter@@
hectares
fai@@
dio
begreifen
Zusammenbruch
verständ@@
geschwindigkeit
zukünftig
Vorwand
Defizite
Kompromis@@
touched
mounted
dian
woods
Block
för@@
opponents
moon
sleeping
oque
startet
bestä@@
reguli@@
wolle
vorbe@@
auseinander
Abgesehen
awards
Prix
Simul@@
flüge
Freie
TER
o.@@
reiter@@
servative
marriage
countless
recogni@@
plugin
Hyper@@
Geschlechter
firmen
Territorium
scra@@
prescri@@
invo@@
Type
Mun@@
Tipps
Reihenfolge
125
pré@@
utility
emis@@
theast
17.@@
Veget@@
Borg
Sorgfalt
verhältnis
Sän@@
Ausgleich
mehrerer
verschieben
giert
rägern
Effektivität
waffen
interpreted
dot@@
extends
Verona
Freien
Speicher
anbietet
Datenbanken
stringent
dimin@@
plying
elem@@
shoes
cz
Songs
sinn
diente
ölle
Ersatz
menü
islamischen
institutionen
promotes
Ern@@
terror@@
1500
comforts
Mountains
Cube
leihen
umgekehrt
phy@@
besides
gl
siv
tätigkeit
unanimous
Beauty
Trag@@
ordnen
Schwimm@@
leidung
verknüpft
belgischen
atz@@
authenti@@
Stadtteil
schuldig
analysiert
supervisory
inevitable
ames
izz@@
Kali@@
BAS@@
lli@@
wurfs
mittlung
Vermeidung
Kommissionsvorschlag
Between
dictatorship
onte
accompli@@
zel
Provider
Rental
füllt
trock@@
Fortschrit@@
Spek@@
Gemeinsam
delayed
musicians
220
fic
TION
Cardassi@@
selbe
wandern
eper
Round
ector
LI@@
fabri@@
Garda
ssel@@
towels
Grö@@
1977
Yor@@
killing
cans
Mugabe
religi@@
neys
chal@@
21.@@
Spei@@
Fab@@
Yu@@
umen
0.00
schar@@
Gebrau@@
Deine
ktoren
Spielraum
schreit@@
bedauern
Frau@@
troub@@
beha@@
Sax@@
raff@@
vorne
gravier@@
Weißbuch
luck
Jur@@
Head@@
cooling
warmen
fristig
schä@@
vessel
Korean
reader
engagement
wedding
Split
kenntnisse
Mailand
gipfel
Konstruk@@
verschoben
genauen
consulted
safely
Laeken
Sant@@
og
besticht
Mauer
interessen
colon@@
aters
xel
Zur@@
Frattini
läge
konz@@
Kopie
Versuch@@
breites
schmerz@@
reconciliation
separation
ebo@@
Child
ador
mari@@
Sli@@
Leid
banken
entiert
beliebten
Menschenhandel
Albanien
retirement
conviction
eman@@
after@@
UPS
wünschenswert
zeitlich
Wechsel
sail@@
objec@@
provo@@
stit@@
Review
Ess@@
mittag
parlamentarische
coherence
loud
Hierzu
vorsch@@
descri@@
poin@@
qualities
Leonardo
genetically
entities
titles
jor@@
Partners
pur
tournament
Klar@@
attra@@
besseres
ermaßen
gegebenen
bla@@
exquisite
zukunfts@@
boom
summary
capitalism
ruption
spell
pts
Walter
verbot
liziert
friedliche
asiatischen
ailed
ually
reaches
flan@@
rd
0.0
aku@@
atte
Chaos
bereitstellen
Vorbild
strafrech@@
erschienen
skosten
Frank@@
ECHO
photo@@
acken
Lum@@
subscription
schau
Literatur
sendung
Eintrag
Rahmens
attempted
finishing
ruled
tained
eme@@
Karel
Eur@@
wski
dev
ет@@
Rechtsan@@
Män@@
anderswo
Wahrnehmung
Grundfreiheiten
Watson
dow
ila
ühle
Steu@@
zugän@@
durchgesetzt
incorpor@@
starker
fortable
ßte
entfer@@
bedeutendsten
wesens
justification
afterwards
fossi@@
endo@@
Days
lische
nachvoll@@
häl@@
Jahresbericht
ghter
eligible
dreams
Cop@@
Hunger
fang@@
ünde
Rimini
uten
Nationalpark
gebrau@@
südlich
gebene
gewann
Folglich
datum
bah@@
Relax
ML
Abonn@@
1990s
expl@@
Simply
resistant
cco
Rosen@@
erzi@@
Zulassung
Energieversorgung
gged
designated
collections
Elec@@
studios
vineyards
Oxford
Dolmet@@
gebenden
Golfplatz
Stimmung
abgesch@@
ausbildung
fischen
mündliche
Frankreichs
clarification
blocked
Allgemeine
Bran@@
Meer@@
faktor
untereinander
Treiber
stahl
anstelle
bedeutend
Wurzeln
zwangsläufig
worker
Song
bark@@
TP
sozusagen
müßte
vertei@@
Stütz@@
defizit
lov@@
ovi@@
hôtel
blü@@
Thermal@@
retro@@
indispensable
offset
tness
gases
audit
fici@@
mic
adidas
schle@@
Erreichen
geschätzt
veröffentlichten
weisungen
Konflikten
beitreten
symbolic
PR
outer
Tony
Spon@@
geklärt
Versand
bereichs
Manchmal
Anzeichen
cus@@
nisch
races
privati@@
Ze@@
Argum@@
DE@@
Metho@@
Harry
Boutique
Empfän@@
Ungleichheit
smu@@
labor@@
cles
Supervisory
Intensi@@
netze
assungs@@
cargo
socially
lawyers
deeper
suspension
Pad@@
FO@@
Privi@@
menus
Salz@@
Interview
Rats@@
berich@@
strategien
Hop@@
alig@@
Four@@
Carlos
thaus
gesorgt
mehrmals
Jahrzehnt
Unlike
endless
avoiding
instability
installing
liquid
seaside
Materials
ometer
TU@@
lern@@
geteilt
Kandi@@
übrig
Gastfreundschaft
gehörte
wozu
Texas
oked
sav@@
Standpunkte
erschien
Hinsichtlich
Aufträge
fehlende
gefolgt
entity
implic@@
reproduction
gra
jn
Alm@@
sé@@
wuchs
Fertigung
detailli@@
luxuriöse
iz
echo@@
enda
Schiffs@@
Brem@@
Zent@@
erinnen
Konzert
religiöse
decentrali@@
stating
delivering
3.5
Label
Petersburg
Clu@@
Workshops
beln
erwar@@
außergewöhnliche
fundamentally
dging
SPA
aka
Prü@@
Script
Uhr@@
Komple@@
betrug
dauerhaft
Besonder@@
endung
infrastructures
conditional
complic@@
Stabili@@
otten
Kommentar
Theater@@
prüfung
ektionen
Ärzte
umfassendes
Erleben
stunde
wechselt
realised
cros@@
Being
Albert
Hilfen
hung@@
Converter
frau
rische
Informationsgesellschaft
sincerely
sett@@
hunger
nav@@
Ny@@
quet
Diagno@@
Fußball
chemischen
emandem
1969
existed
sag@@
Maison
tana
schulen
voices
Though
ideological
advocate
mou@@
Jam@@
inne
NT
tron@@
rer
ürz@@
saison
Button
Leistungsfähigkeit
Zäh@@
prompt
aders
check@@
ð@@
otype
Ostsee
qm
fache
Zubehör
optimalen
thor@@
Ingenie@@
nähe
Ernennung
korrigieren
unvergesslichen
hinzuweisen
Ganzes
limitations
pipeline
somewhere
fat@@
dn@@
besi@@
ave
till@@
Sn@@
FT
Frontex
ausgestatteten
maßgeb@@
shock
trail
teach
Channel
zar@@
IND
HOTEL
schicht
industrielle
kauf@@
systematisch
Flüchtlings@@
ausgedrückt
explanations
reinforced
Extra@@
reasonably
opera
arran@@
contest
oph@@
belieb@@
advances
ion@@
Hollywood
Engli@@
gun@@
nische
Exhibition
zeitraum
bürger@@
Architek@@
Komponente
Binnenmarkts
lays
90@@
anger@@
Jes@@
Blizzard
Mitwirkung
verglichen
Regarding
IK
Mou@@
Panel
filters
stroll
Residen@@
Teu@@
1.2
pec@@
sever@@
wich
Sah@@
Christians
Erfin@@
Touristen@@
vorangegangenen
Voraus
eable
classi@@
borro@@
bereitschaft
Bildschir@@
einsei@@
globally
jung@@
Large
dust
Statt
Wert@@
Gleichbehandlung
grass
lap@@
generating
Cash
bor
einzustellen
genügt
indirekt
gui@@
use@@
complement
Spen@@
valu@@
Basic
Memory
von@@
unglaub@@
Glück@@
defiz@@
entworfen
cements
counting
ardi@@
Oracle
acht@@
Abfälle
Geschichten
beträ@@
Welthandelsorganisation
incomes
endeav@@
omed
infec@@
toll
manip@@
Enth@@
S.A.
Vogel@@
Wunder
hrt
weitem
fulness
intergovernmental
Journal
autonom@@
Direct
Cannes
Maj@@
Cot@@
Festung
annt
ssige
Informations-
Ursprungs@@
Low
utive
ppen@@
Pfei@@
besagt
bte
bemerken
Präsidium
Parlamenten
uph@@
workforce
arriving
universe
tale
Gur@@
Schiffen
schwarzen
Gemüse
hell
tram
hn
bevor@@
schaff@@
Durchschnitt
Netzes
flüsse
ausgebaut
wunderbare
korrekte
zulässig
Zielsetzung
distant
itz
Fire@@
NOR@@
mins
kirche
Spanisch
vorhandene
Norwegen
spieler
verbieten
abu@@
pull
calculation
öst@@
skill
aluminium
ppy
luxuri@@
Boli@@
Grupp@@
unterhalb
kompliziert
stieg@@
sieb@@
Sensibili@@
NOT
processor
fair@@
ext
Berechnung
abzielt
inevitably
incident
Peking
Phar@@
belegen
kamera
ferenzen
stir@@
dek@@
ende@@
usi@@
elegance
ausgezeichn@@
Besichti@@
verbindlich
Collection
Schlu@@
Papier@@
Mühe
stechnologie
treibt
Back
Bolkestein
host@@
Dr
Focus
Phil@@
lans
Deli@@
lugins
gehend
förmi@@
runden
Wohlbefinden
Arbeitslosen@@
ausgearbeitet
Vorredner
reviewed
integr@@
Let@@
abel
räder
traditionell
neter
weitergegeben
geseh@@
Neuigkeiten
scep@@
openly
lings
aro
hip
tu
Solar
ebook
maß
späten
durchschnittlich
benachtei@@
leichten
admission
panorama
Stern
terie
Schaf@@
drehen
schaftlich
tatsächliche
wahrnehmen
proliferation
dis
practic@@
extrac@@
Johannes
Application
aben
arien
bestellt
stufen
deutlicher
ausgewogene
Besteller
gültigen
Ausnahmeregel@@
consist
Ash@@
geschätz@@
getestet
Aufrechterhaltung
fertili@@
supporters
noisy
decoration
Fan
zierte
Heim@@
Fertig@@
interfaces
vised
systematically
mineral
grid
Spr@@
Statistik
Veranstaltungs@@
wende
artig
kapit@@
Betrugs@@
Sortiment
scape
blau@@
vorschlägt
threatening
laimed
Nobel
och@@
dress
Later
wasn
CN@@
verbreiten
etten@@
anwend@@
Ratspräsidenten
Finanziellen
infra@@
Works
noti@@
pine
hairdryer
Krä@@
Simbabwe
tless
impetus
judges
graphical
enjoyable
ingo
Stefan
Bier
unverbin@@
anstreben
fahrzeugen
Tob@@
recy@@
massi@@
Sty@@
Mozilla
Linken
Interessen@@
impro@@
tar
attempting
defeat
Smart
Tai@@
WiFi
Schal@@
Verz@@
pläne
masch@@
heil@@
affir@@
utt@@
aboli@@
wehr@@
Annäherung
kurz@@
verwirklicht
outlined
lying
ckers
packed
Kühlschrank
Fokus
latein@@
Beachten
Vielmehr
Stränden
Barnier
Ps
Kun@@
passi@@
Lon@@
Reich@@
Banglades@@
16.@@
lok@@
äden
Zentren
lässigen
Infrastrukturen
Dörfer
kommunistischen
carries
donors
invites
symbols
strom
ouldn
ASA
Func@@
añ@@
LateRooms
Fuss
integrating
Gross@@
bollah
printer
Night
cost@@
anstal@@
Funktions@@
Gäste@@
personenbezo@@
Zuerst
Umstrukturierung
Allow
supran@@
Respon@@
shooting
sident
Klin@@
schaftliche
Nahrungsmittel
abgehalten
Signale
Dringlichkeit
vermehr@@
Indonesien
gradual
tracking
cross@@
brin@@
Solange
Landschaften
Flüchtlingen
Mittel-
shaushalt
discretion
await
fabric
Much
hopefully
hazardous
detection
Tourist
BE
Fitness@@
Verkehrsmittel
Stellenwert
Gleichheit
lüssen
Mitentscheidungs@@
annually
anno@@
turm
Freizei@@
Maß@@
linking
key@@
Sett@@
antiken
damaligen
Konzerte
pointing
simplified
locally
herself
Energies@@
Gefan@@
sevent@@
restra@@
law@@
loan
inson
beautifully
cine
ICH
Telekommunikations@@
verschwinden
Verantwortungs@@
Nuklear@@
befreien
fasst
Devisen@@
adverse
freundlicher
allmählich
Gefangenen
Vermarktung
abuses
libraries
legendary
Johannesburg
Business@@
kommission
Laman@@
christ@@
Ansätze
Bestand@@
bewus@@
harten
ART
Satelli@@
stanz
entwickel@@
stattung
Gefäng@@
veränder@@
Treib@@
tunnel
defici@@
interference
notic@@
supplement
container
ù
Airways
Dubai
erschein@@
gefühl
Substanzen
Etik@@
Petitions@@
alising
PVC
horses
Recy@@
anmelden
mah@@
Busse
wickelt
Möchten
erweiterte
Criminal
Heb@@
subjected
WE@@
schwedische
repression
geous
robu@@
Spra@@
großartige
Mehrere
Tagungs@@
begrenz@@
stoppen
mixture
ACE
allen@@
Kil@@
sser
Funk@@
yp
passenden
gegrün@@
städtischen
fließen
Liter@@
insight
ranges
attraction
Azur
ów
äd@@
verstärkten
beding@@
anlässlich
Einladung
Swoboda
character@@
entrepreneurs
bio
ket
Auth@@
Visual
IRC
höhe
berühmt
aufre@@
Säule
quo
advised
Lama
ront
Kro@@
att
bewirkt
Fristen
tremendous
delivers
sensitivity
aman@@
Florida
bikes
Beobach@@
Kommand@@
anfangen
kapital
Generalsekretär
Sicherheits-
maintains
Bern
v.@@
Ltd.
tauschen
Nutzungs@@
Benutz@@
Sicherheitsrat
aktiver
Famili@@
highway
walt
refriger@@
brand@@
beam@@
stehe
kämpft
herunter
gleichzei@@
Sämtliche
langjährige
tually
distan@@
deter
strand
DO
Baroness
prints
Rock@@
kov@@
dacht
abends
ckte
Operationen
Abweich@@
verbreit@@
vorrangig
vacuum
rarely
giant
His@@
critique
investitionen
setzten
Währungen
einbringen
Demokratien
benötigten
perpet@@
provi@@
utions
aga@@
Marx
prochen
Pfer@@
männ@@
unzureich@@
Konkurren@@
Zellen
Little
prevents
shing
chances
figh@@
Fres@@
Fest
CPU
Bruder
glicher
Gesetzen
Geburt
ude
ás
Vegas
Kei@@
nya
Direkt
ständiges
krieg@@
Wärme
Fertigungs@@
exceptionally
tling
gather
Dör@@
Viol@@
poss@@
zip@@
fft
gemü@@
Flach@@
schien
Meinungs@@
Reden
Behinderungen
beantragen
contem@@
stren@@
Swi@@
oping
Sofia
Indikatoren
moralische
beeinträchtigen
hearts
overnight
usa
Balance
uta
algorith@@
verschul@@
personality
corri@@
silent
bloo@@
nutri@@
ungsh@@
stechn@@
Zeitungen
ommen
Automobilindustrie
disagree
folk
NT@@
klausel
Beau@@
Ethernet
Infos
enswer@@
Unserer
gründlich
Kompromisse
Vall@@
Controller
thirty
CC@@
ismo
artier
bekam
äuß@@
tiefen
häufiger
vernünftigen
bezauber@@
Canaria
Abwicklung
zweimal
Projektes
Satelliten
indirectly
vou@@
Chechnya
Save
Mé@@
erfor@@
ebung
unvermei@@
Impf@@
Lanka
quasi
stra
betreibt
verbin@@
Abend@@
Entschädigung
frühere
hinterlassen
Cru@@
communist
leute
tragenen
gerer
Künstlern
Exek@@
revolutionary
Spam
saubere
eingang
Benutzern
reih@@
Vertriebs@@
Entwick@@
meint
Minderheiten@@
interventions
wishing
encomp@@
Nag@@
autonomous
herein
Base
tlin@@
Innsbruck
erkenn@@
veröffentlichte
ansä@@
Romanian
exclude
civilians
reveal
dents
cup
Bach@@
qu
Griff
mild
technically
shell
coach
sives
eno
USE
gesetzlich
Gläu@@
büros
anzugehen
imperative
adjustments
1.1
arises
clinical
etto
gical
aki
insel
sames
inspiri@@
rechnung
drücke
Räumen
Foren
Autonomie
Inflations@@
terly
breeding
selecting
tchen
umen@@
Hob@@
Krank@@
Epo@@
Messenger
Verbindungs@@
Untern@@
Alkohol
besitz@@
onian
high@@
Jack
xis@@
holung
bten
atemberau@@
nachzudenken
decrease
rigorous
incorrect
asting
robots
guitar
beantragt
fähiger
Flughaf@@
Minder@@
criterion
vot@@
turn@@
placement
CR
oxi@@
Galax@@
quer@@
bicycle
Kari@@
dringen
enthal@@
Anmerkung
Egal
gezielt
Applikationen
Finanz-
Entschei@@
Nichtregierungsorganisationen
delle
Gesamtheit
asts
strikes
secre@@
ardo
PP
Mario
R.
orange
therap@@
differenzi@@
ол@@
abteilung
nnen
corporations
quiries
Nothing
class@@
Bologna
Som@@
iles
stitution
CP@@
teur
Meister
ausgeübt
muslim@@
begab
schwerwie@@
bekräftigen
ior
complaint
Freedom
abe@@
Multimedia
ğ@@
Zugangs@@
dauerhaften
Augenmerk
koordinieren
onder@@
determining
criminals
she@@
Chancellor
mits
Sahara
Athens
Intelli@@
ORE
Fischer@@
mache
Mitgliedsstaaten
investig@@
brie@@
circum@@
correspon@@
painted
Bangkok
origins
Volkswagen
ehl
Brand
aal
vorausgesetzt
Verpackung
Unternehmer@@
Diktatur
GVO
democracies
event@@
boys
therapeu@@
Ebenfalls
Sofern
verträge
Einwände
disciplinary
floo@@
bic
healing
Mechan@@
Jack@@
Everest
uno
brachten
befür@@
Vorstand
Völkern
Inanspruchnahme
pflan@@
ulierung
Anreiz
transp@@
Kost@@
Panoram@@
volumen
ғ@@
feier@@
resumed
reciproc@@
terten
Basis@@
Zentralbanken
educ@@
crats
Zealand
Upon
astic
Statute
perception
newest
berry
chip
Kühl@@
tolle
Nachteil
Klim@@
schreck@@
schieden
Einblick
Übertrag@@
öhnung
Auswahl@@
dänischen
matches
examining
mount
Crus@@
ula
gesetzliche
höchst@@
Klick
persönlicher
preises
etzt
Einfluß
Environmental
tice
Euror@@
booth
kung
ITE
medizin@@
auftritt
funden
Aufsicht
vorhaben
Erneuerung
Nachbarschaftspolitik
Gü@@
resolving
theoretical
coding
Users
aboard
wachen
ausführliche
Hongkong
beliebt
chamber
TB
alog
HA@@
Beta
Maus@@
adresse
Doppelbett
geordneten
bezogenen
vereinfacht
ISA
Studies
frische
Statut
präz@@
Orientierung
path@@
here@@
celeb@@
ielle
Eck@@
Twitter
Betrach@@
nutzung
Hintergrund@@
compens@@
globe
Cotonou
berge
Festivals
Subjek@@
Forst@@
ekten
sozial
ziehung
mangelnde
envisaged
distinct
populi@@
austerity
rear
ont@@
Gä@@
stärke
packen
beweist
smoke
spru@@
büh@@
akten
beruf@@
gerin
beliebtesten
behindert
exam@@
dramati@@
Unless
retri@@
credits
limitation
Local
Rum@@
missi@@
surgery
regu@@
echter
touristischen
Publik@@
Entfer@@
zunehmen@@
erreichten
Geldpolitik
penet@@
Bike
thaf@@
schwarz
ßes
restrictive
hosti@@
PA@@
Kling@@
ellen@@
bedient
Premi@@
Aluminium
german
Souven@@
vente
Vulkan@@
indire@@
dürften
erzählt
erkennbar
Gefähr@@
engagieren
dle
lassen@@
Verbrauch
monopoly
appearing
abstained
Bulgarian
ache
parall@@
terraces
Son
iga
TU
letztes
luft@@
Eleganz
Gerne
äußer@@
terrain
Latvia
tox@@
Mercosur
ellers
Scott
Solidarity
Monta@@
gebor@@
arme
bungs@@
Kosme@@
eingeben
Einbindung
kompetenz
excuse
ò@@
divisions
1972
rale
bemerkt
Persön@@
strebt
Jahrhunderte
Treibhausgas@@
sy
Terror
estro
spür@@
Zeile
klim@@
ventionen
einsetzt
harmonised
layers
cils
promp@@
dun@@
fin
olls
brun@@
Downlo@@
schwäch@@
ODER
insul@@
carriers
organs
bedded
MIDI
strecke
modelle
verteilen
schaftlicher
regelmäßige
licensed
mitt@@
tet@@
Stil@@
immerhin
drit@@
Früchte
Gültigkeit
Redebei@@
gau@@
protests
beside
Rhine
Consul@@
couples
py@@
fier
Kel@@
Kondi@@
andau@@
Gesetz@@
grundlage
vorzubereiten
Naturkatastrophen
margin
perceived
Catholic
aving
has@@
kü@@
bahnhof
gig
fikationen
raums
lichung
artic@@
yield
enhancing
15.@@
19.@@
TW@@
Feri@@
glas
Sequ@@
Internetseiten
Rohstoff@@
Teilnehmern
installi@@
mistak@@
totalit@@
chno@@
passive
static
Imperi@@
Punta
Jag@@
Mira@@
anci@@
element@@
sowje@@
tori@@
scrutiny
thereof
formali@@
ceremony
vian
Donald
Orchestra
zierten
benutzer@@
vorbereiten
zuverlässige
IGC
nai@@
distributors
Vier
herausge@@
dengan
Italiens
rungen
pillars
embry@@
formerly
Dom
tras
Clear@@
tera
anzen
ppt
Gemü@@
Suchen
formally
patch
römischen
procedural
refusal
foster
cular
Colombia
furnishings
ftung
linge
Kapitalismus
Direktor
Migranten
thwest
coins
142
000@@
Dav@@
Dienstes
Beförderung
angeführt
innocent
ritt@@
awa@@
statute
rts
stimulus
zza
Officer
ITY
Säu@@
äler
Möbel
schaft@@
cotton
cigare@@
Railway
azione
Dür@@
audiovisu@@
KS
Nachbarschaft
träglich
Selb@@
leiste
Autorität
Passagiere
Königreichs
plu@@
literally
samples
pig@@
Echtzeit
Dafürhalten
RA
uniqu@@
ussy
echt
Spielern
Netzwerke
billigen
fertigung
Hoheits@@
schätzt
resol@@
portion
Especially
Contrac@@
Schauspiel@@
Gletsch@@
fungs@@
vielfach
inierten
Konsumenten
validity
compromises
convincing
disastrous
sincere
pushed
cir@@
mic@@
cling
diesel
pedestrian
Aller@@
HE@@
pdf
erschüt@@
Anpassungen
preisen
Streitkräfte
5000
ageing
nearest
ferry
upload
ż@@
Paradies
gelag@@
ersuchen
Haushaltsjahr
headed
philosoph@@
länge
skri@@
ön
Freizeit
Energiet@@
forderungen
ventions@@
securing
cel
Ev@@
RT@@
Ukrainian
Kleidung
Beschaff@@
workplace
tariff
Apart@@
customized
sst
Toleranz
besichtigen
hinzuzufügen
ernannt
taire
Pom@@
Piet@@
instant
productions
Production
latt
starb
herausra@@
optimieren
abgestimm@@
mitglied
preservation
abandon
Marie
tta
sachen
NA
accommodations
aufweist
Demokratisierung
onisten
Folgendes
Proc@@
Any@@
protective
hony
STE@@
Dutz@@
teres
Besetzung
gerei@@
Unterstütz@@
glich@@
Gesundheitswesen
artigen
Lap@@
visas
a.m
TEN@@
scop@@
englische
grundlegend
identifizieren
Schottland
Stellungnahmen
Organis@@
1980s
Jobs
MIN@@
Rhein@@
Band@@
Jet
das@@
Musiker
überra@@
anien
funktionier@@
fortzusetzen
Mensch@@
Außengrenzen
attach
reactions
unilateral
Germans
rounds
door@@
ius
zir@@
familie
Lauf
rahmens
legisl@@
overwhelming
jar@@
Minist@@
Priv@@
ror@@
Mountain@@
Rücken
gau
Termine
automatischen
alternativen
maßgeschnei@@
Kohlen@@
Persönlichkeiten
ounced
encing
landing
Zap@@
Buil@@
tei
Obst
Artikels
safeguarding
Hear@@
depic@@
Set@@
tat@@
té@@
1701
Kloster
dryer
Bundesrepublik
Lust
Schnit@@
dynamischen
verkauf@@
worried
preference
comfortably
erc@@
behold
TRA@@
gelände
nahen
Auftraggeber
zusammenzu@@
länen
Erkrankungen
wering
ц@@
Angebot@@
herrsch@@
genutz@@
Aufgaben@@
erfassen
Insofern
Democracy
rival
lifts
Universi@@
OL
City@@
exe
adet
Keram@@
bün@@
Milch
Forscher
steigende
seitdem
Sozialpolitik
admitted
Geo@@
gerte
Maßstab
Arbeiter@@
jenige
Erschein@@
Ganze
nigen
gemeinschaftliche
Hoffnungen
thinks
pin@@
aton
exten@@
consum@@
Ex
LIN@@
Szen@@
Heu@@
abzulehnen
gesenkt
tled
morali@@
Stim@@
intuitive
unia
Tier
Erwerb
haber
Garan@@
mensch@@
Schwi@@
fehler
verlust
wiederhole
zivilen
hunting
clas@@
hood
remo@@
Rate
Interpretation
HI
Bün@@
YORK
geholt
bücher
westliche
vorzuschlagen
limiting
fed
Major
consolidated
queries
accessed
Rechtssicherheit
Classi@@
σ@@
Kalender
unum@@
fünfzehn
Höhepunkt
arena
Gibraltar
2.2
OM
keyboard
Terrace
Malware
BSD
ländischen
sex@@
unanimity
council
dered
inet
wet@@
omo
Solarium
Quartal
Konzern
gesendet
reti@@
spiri@@
mili@@
etti
Creative
mware
Eurocopter
einlad@@
Rezep@@
Vorbehalte
Zinssätze
wished
Canadian
categ@@
invoice
lio
Zoll
Kurs@@
geschlossene
bige
Zivilisation
Vorbe@@
bewundern
unternehmer@@
friedi@@
festhalten
wisdom
gmati@@
Written
Petitions
Andro@@
Prince
altitude
erender
webe
bedürfen
reiten
versetzen
Political
anism
figu@@
wid@@
1930
serie
Begeisterung
architekton@@
ausmachen
Feder@@
congratulating
Hein@@
14.@@
lingu@@
750
Umgeb@@
Resultat
niedrige
Zeug@@
verweist
Beglei@@
geneti@@
wertvollen
Tschetschenien
chart
Against
Giovanni
abetes
lingen
modular
Komplexität
Mitarbeiter@@
Gegebenheiten
quoten
fragile
Natura
pricing
Congo
uner
norm@@
essor
Quer@@
bör@@
fahrt@@
Ganzen
Whilst
modus
agra@@
Repar@@
Ramblas
Kanz@@
loh@@
Buchstaben
Kindes
Schluß
Nachfolger
voranzutreiben
paint
07@@
calcul@@
deployment
exploited
segments
Roth@@
Lady
18.@@
downloads
Kanäle
ни@@
stisch
Rollen
Nichts
Störungen
serklärung
transported
witn@@
damp@@
gian
Lobby@@
eite
hochwer@@
ammern
sache
lieferung
dahingehend
beglückwünsche
außer@@
zugreifen
stabilen
begriffen
engruppen
Again
proportionate
dramatically
night@@
Bavaria
tank
Core
DM@@
rek@@
tiver
schätzung
routine
immen@@
escal@@
cathedral
dichte
Campingplatz
Gewährung
lity
dish
beratung
Quadrat@@
struk@@
transatlantischen
costly
assessed
wanting
profession
gency
aero@@
enni@@
afri@@
Downloads
Jacuzzi
gebnisse
safer
proves
concludes
arest
6th
Dunk@@
Angeboten
worauf
zügen
Still
accommod@@
fres@@
execute
Enter
Depression
esen@@
terrasse
diversen
behei@@
aktionen
Profi@@
certificates
24.@@
unic@@
Navigation
favor
verlängert
Krimin@@
roten
amtierenden
Immunität
accompanying
Looking
studying
sth@@
veness
Ot@@
sequence
ateway
2.1
asso
buttons
Porsche
Smart@@
FREE
icht@@
rent@@
renovierte
Entwicklungspolitik
unterstrichen
Seattle
unified
Annex
Dal@@
scri@@
broadcast
bury
aba
Photoshop
Breite
blicke
lichere
Fäl@@
Sehen
zierung
Jordan
Veter@@
etts
ark
amtierende
massiven
Pharma@@
führend
anne@@
Guatemala
noble
DF
Medina
Brown
burning
insert
lv@@
mont
Formul@@
Unix
zern
Kampf@@
verschärft
bewahr@@
energies
sorts
variables
ATE
galleries
hof@@
Plu@@
F.
Spann@@
mobilen
außergewöhnlichen
endorsed
vigil@@
ms@@
dicht
gster
digkeit
cease
author@@
aver@@
sau
PCI
†
geschützten
Aufklärung
verify
exclu@@
there@@
classified
buyer
wis
Manchester
ny@@
eso
nier
Stars
Magazine
Lux@@
jazz
er-
fehl
го
ignano
doppel@@
Antrieb@@
timm@@
Sicht@@
laufende
bekämpft
Gesetzgebungs@@
tonight
Raf@@
Potential
popularity
horn
Lee
cho
Wolf
Domin@@
MB@@
reiches
herrschenden
ausführ@@
modification
Roth
demonstrations
serial
Newspapers
wig
Г@@
zügi@@
ologen
Assozi@@
abzuschließen
Menü@@
gehand@@
tible
sympathy
istan
documented
tien
Canal
ystems
10.000
Später
Folge@@
Entdeckung
Kompromiss@@
vereinbaren
verbindliche
mittel-
annehmbar
memories
grams
ý@@
direkter
Logistik
Zucker
Herstellern
riert
Werken
consultations
aiming
Event@@
wi
Fau@@
tschechischen
Medizin@@
Anzeigen
Erstellen
gründe
verlu@@
vollkomm@@
einzuleiten
inwieweit
Neither
fasc@@
legacy
inviting
readers
decor
Appart@@
geschmackvoll
Verbin@@
kopieren
dynamische
Ansprechpartner
Ziels
koordiniert
erfahrenen
abgeschafft
geisti@@
responding
writers
ith
ox@@
probe
emphasize
bik
Fahrzeugen
indischen
basierend
legislativen
chips
matic
detention
lifting
Biom@@
seller
tzen
sung
english
Schalt@@
packt
zte
Beispielsweise
begrenzen
counted
anyway
egu@@
Perf@@
Somm@@
dorthin
fundi@@
ennen
beobachtet
Kameras
irgendeine
punishment
Bos@@
7th
bad@@
Scre@@
Zah@@
Durchführungs@@
ausgestellt
wurf
ruf@@
Industriepolitik
missible
obstacle
endeavour
Lud@@
Help
Argent@@
dimension@@
Akademie
GH
angemessener
Redezeit
settle
immunity
intimate
liqui@@
cut@@
partement
Exp@@
kot@@
perfek@@
Hunderte
Norm
grenzt
Partnerschafts@@
Defizit
Kernenergie
classification
regre@@
deciding
Conci@@
invasion
Pho@@
не@@
festgehalten
Moldau
tivitäten
Ära
Anyone
Monaco
Phan@@
erbe
Geschäftsführer
modernsten
ständigkeit
Konvents
vertical
evalu@@
neut@@
Mozart
Metal
unmittelbare
х@@
europas
Bewegungs@@
ausgenommen
ausgebil@@
devi@@
identifying
Sydney
stairs
text@@
Wilhelm
SN@@
boutique
stuhl
kunde
Gewer@@
versprochen
diplomatischen
optionen
gle
anta
Johann
Active
baths
rounded
österreichische
Schie@@
bildungen
blockiert
Gutes
Erwachsenen
ausgehend
Gegenwärtig
multilateralen
consolidate
Disabled
bets
bearbeitung
winkel
fangs@@
Sammel@@
fläch@@
Gebir@@
Schließung
vil
Trav@@
ao@@
UT
wehr
Schlo@@
g.
temperat@@
Zukunfts@@
Rä@@
Sisko
ränkten
übertrag@@
Entschließungsanträge
princip@@
scripts
Aero@@
bugs
Mie@@
schwach
ateg@@
terte
beachtet
Afrikas
drew
nings
irrespective
lend
selec@@
ité
adar
Rose
Spiegel
ummer
halben
Häufi@@
bewegungen
freiwillig
baute
faktoren
Verhinderung
indications
Nit@@
cattle
medic@@
Zak@@
1971
~
dion
profitiert
attraktive
Aufstieg
ausreichen
Landwirten
Weltkrieg@@
Anwendungsbereich
herrschaft
Diejenigen
confirms
guilty
veri@@
Soci@@
trials
insur@@
Technologi@@
linder
WM
Monats
Richtigkeit
bedauer@@
anch@@
commodity
bottle
Canary
HTTP
listet
Ausstellungs@@
Wissens
Pazi@@
wirtschaf@@
Beitrittsverhandlungen
tanks
dity
gigan@@
audiovisual
bunal
Stephen
Cul@@
Economy
C6
utz
minibar
Ferienhaus
Layout
kriti@@
scheinbar
wunderbaren
effizi@@
schwe@@
Therapie
vereinbarung
Masse
erweise
Zutaten
abhängen
Instabilität
ideology
UEN
buil@@
Lig@@
ener@@
ehr
SEO
Glücks@@
sämtlicher
praise
igration
aments
smallest
H.
indu@@
Pots@@
solidar@@
GI
ukra@@
rump@@
fizierten
verschlüssel@@
Vermögen
äle
eks
paragraphs
diam@@
surfaces
Along
mel
partner@@
Zentrums
iell
Zeitalter
bestraft
aufhören
Bedrohungen
p.m
tendency
admire
intent
construct
fastest
ruins
Lyon
Cruz
Tuscany
Kast@@
Č@@
Oper
gemütlich
gewöhnliche
Olympischen
unweit
abschluss
bereitgestellten
annten
durchschnittliche
bewäl@@
edly
posing
brilliant
slide
estic
vibrant
Price
Fou@@
tà
stitu@@
Guantánamo
Learn
kaner
.NET
Voraus@@
Sieb@@
situationen
zonen
ausdrück@@
Überleben
henden
relie@@
Nas@@
oi
CAN
gesu@@
Beträge
iranischen
Publikationen
lusses
grafischen
deadlines
problematic
xy
fried
09.@@
ме@@
teu@@
geld@@
aktivi@@
verordnung
ausgewählte
meaningful
Recently
six@@
medicinal
Di
alpha@@
Romul@@
Punk@@
erho@@
gefahren
kunft@@
Kongo
Bürgerrechte
abschließen
fulfil@@
delegations
psychological
Harmon@@
Fusion
Oliver
Kä@@
Ball
Artikeln
kontra@@
Meinungsäußerung
crus@@
definitive
stle
complementary
neutrali@@
Virtual
об@@
salle
ausgeben
Gedanke
Bestrebungen
wirksamer
Gegenden
barrier
hygiene
distinguish
households
Pent@@
Chris
Depending
Europäisches
Upgrade
geräumigen
Gestalt
Palast
Weiter
deckung
diesbezüglichen
lagen@@
berau@@
konkre@@
Nordkorea
adjacent
reluc@@
remedy
illness
traditionally
nightlife
Ultra@@
Stern@@
benachrichtigt
Hindernis
Entscheidungsträger
tigungen
apped
Castro
ulative
definitions
conce@@
Alban@@
Lange
blocking
past@@
Übermittlung
verhandelt
größ@@
privater
Verbündeten
schlimmsten
wirksam@@
Befug@@
spreading
Agri@@
Scandin@@
af
Rica
č
Charakter@@
gescho@@
Sozialisten
Akzeptanz
begünsti@@
beherbergt
gemachten
Katastrophen@@
Warsaw
1965
positives
sein@@
Wanderungen
bestanden
stützt
Liquidi@@
eive
tied
mood
haz@@
correction
europa
Portfolio
Blau@@
Ungleichheiten
verwandeln
stechnologien
Reparatur
schätz@@
witnessed
Algeria
entary
visibility
Somalia
anton
SAT
Labor
terra@@
Rechen@@
herrschen
standardis@@
Five
Ala@@
macro
Imple@@
low@@
configured
mare
Crist@@
Me
Clau@@
Tie@@
gter
ausgeprä@@
schweigen
lum@@
listing
completing
femin@@
VII
surance
uan
wandeln
folgte
rumän@@
inland
Hague
Sep@@
modernisation
reaffir@@
textiles
introduces
tout
you@@
Temp@@
ρ@@
legend@@
Folter
mord
Auflagen
donor
volumes
wholes@@
cream
YouTube
zufriedenstell@@
geschnitten
Wandern
Protok@@
markiert
Militär
improves
cover@@
ordering
dioxide
Gig@@
beeindruck@@
Gepäck
Auslands@@
wissenschaft@@
verbundene
seas
wns
pushing
sere
spark@@
endums
ahl@@
zn@@
Unterricht
Erfassung
ausgeliefert
Durchschnit@@
wertet
renewal
XX@@
transfer@@
repar@@
developer
Pay
Un
Tempel
Schätzungen
kreative
Phasen
energie@@
bekanntlich
worlds
22@@
inas
lush
Chianti
Erkenntnis
Erdbeben
Endes
aven@@
orous
Hilton
region@@
ature
painful
advisory
transpar@@
G.
europa@@
Benz@@
personen
kollek@@
Gehir@@
gewöhnlichen
pflegen
Behandlungen
hec@@
fridge
Model
LabVIEW
CMS
samt
ALL@@
zeile
Schwerpunkte
exacerb@@
persu@@
clauses
recru@@
modifications
stants
Import
friend@@
ographie
Nachteile
Standorten
Strecken
Fülle
kümmert
regelungen
101
portable
crip@@
Ple@@
Budd@@
Secure
ewi@@
Bek@@
Gift
Zeitschrift
Etage
pfli@@
trinken
Verwen@@
Beschäf@@
Elektriz@@
niedrig@@
höherer
gezahlt
Decision
23.@@
honest@@
echo
sends
propaganda
25.@@
Lufthansa
MPEG
Höhen@@
siedlung
Trä@@
Turm
angen
stufe
Zuliefer@@
gerungen
Kriterium
compet@@
stent
card@@
conducting
frames
Salon
selts@@
Spock
Bestimm@@
künften
mächtigen
Cohesion
emit@@
mma
Holding
YOU
ا@@
signifikan@@
Konz@@
geschenkt
Zwischenzeit
vergleichbar
anzusehen
pflanzen
broadly
stically
recur@@
diet
disabilities
condem@@
enemies
broadcasting
WE
snacks
affen
kultureller
Objective
disappear
sic
Leon@@
mmer
Monum@@
Quart@@
Seh@@
ansprüche
ermittelt
gerlich
Broschür@@
Flächen
Schlacht@@
Century
gy
tano
Wu@@
esto
Clients
Beibehaltung
künstlerischen
fassten
Hochschulen
tseite
konstruk@@
Vorsicht
abzugeben
consi@@
surf
intelligente
verdanken
machung
mittelalterlichen
vorberei@@
aker
Additional
loads
Info@@
13th
Kath@@
spam
Erdo@@
к
selek@@
tigkeits@@
gangene
schriftlichen
Infrastruktur@@
Schlußfolgerungen
suits
draws
ILO
yiel@@
Medium
Hot
morgens
andel
Maus
Lizenzen
etabli@@
Klang@@
fän@@
ausgerüstet
Gleichwohl
anzuerkennen
fossil
deplo@@
gebucht
wenngleich
Spiels
Schlacht
Nutzern
bürgerschaft
long@@
multinational
stly
fulfilling
earthquake
casting
burn
lun@@
astronom@@
Images
ā@@
Häusern
Ansprüchen
Tagungen
kommunizieren
Inzwischen
Begrenzung
menden
Transpar@@
enforce
Whatever
flora
pit
humane
dairy
viewer
Cards
turel@@
Rohr@@
Kunststoff@@
Funktionsweise
Volkswirtschaft
eventuelle
enswerten
gratuliere
08@@
KL@@
exotic
Manuel
omas
Championship
Ima@@
Vide@@
enten@@
Verhaltens@@
gestrichen
ausgewogen
Chinesen
lemma
cooperative
Kh@@
tration
temporarily
oro
Dry
rassi@@
nig
Kommunikation@@
Umstellung
beunruhi@@
gathering
conservative
concep@@
som
hoff@@
NH
effizienter@@
Visum@@
reimbur@@
atus
escap@@
distinctive
omen
Statisti@@
Viel
Fremden@@
irgendwann
Schritten
herbei@@
unkten
themen
anspruchsvolle
Dienststellen
Felsen
Kreatur
fairer
gress
wild@@
MEDA
Pakist@@
ssi
RF@@
Ih@@
einrichtung
irgendwie
kapazität
ehren
genommenen
schreiten
Übereinkunft
ask@@
farm@@
ross
commands
courtyard
Machine
standard@@
zuführen
tierenden
zweit@@
unterschied@@
virtuellen
bition
seed
Doctor
BAE
Workshop
0,00
überwälti@@
Datent@@
gebrachten
Zertifizierung
rieben
Finanzminister
abling
vin
Malaga
kking
setzungs@@
sichten
Daraus
Stabilisierung
coup
protects
attacked
VP
LL@@
pets
Mix
tima
RI@@
schir@@
Blä@@
Meilen
westen
eigent@@
forestry
entre
couldn
Straß@@
betragen
liebt
reihe
versprechen
Beobachtungs@@
shes
bund@@
Amat@@
Fiel@@
inings
Hypoth@@
riffe
möglicher
Zustellbetten
Poettering
Ec@@
evaluated
passport
detect
Bah@@
Trin@@
bie
Promenade
gasse
Zigare@@
problemen
leuten
erbare
feasible
assessing
prerequisite
coastline
continuity
toxic
warran@@
très
1.000
amento
Friedrich@@
takt
zuständige
servatory
Arabia
ergi@@
Lom@@
20.@@
tasty
ANY
geschul@@
Elektronik
zulegen
Drucker
Fahrrad
Lieblings@@
Schwach@@
Alkohol@@
sparteien
retained
transnational
ilit@@
efs
fabulous
Innov@@
offer@@
Demo
heimischen
existi@@
Designs
erholen
Gemeinschaftsrecht
hne
thick
confidentiality
eping
settlements
debts
onale
priced
hardt
birthday
Pisa
MIT
Protot@@
italien@@
bestände
medien
Erziehung
Allein
versorgen
Steel
rence
logy
diplomacy
arch
baggage
Prim@@
Rhein
attraktiven
etwa@@
gischen
Konsolidierung
imbalances
ried
Herzegovina
Finn@@
sche@@
downlo@@
Etagen
kunfts@@
offizi@@
Genauigkeit
grafische
Estland
incidents
safeguards
Meas@@
wheels
valued
opou@@
perform@@
shut
Sv@@
screen@@
én
Jord@@
buff@@
Lock@@
antique
assen@@
Hof@@
DEN@@
ри@@
Fotografie
akadem@@
fizierte
einbeziehen
administrator
democratically
lication
compla@@
AF
macroeconomic
1,000
Iron@@
Hygi@@
L.
holz
ement@@
tter@@
z.@@
ю@@
beginn
Elektron@@
verkörper@@
geber@@
lasten
steine
jemanden
Davon
arbeitungs@@
Bandbreite
drängt
versuchte
Erzeu@@
enny
liance
timing
Produc@@
fitting
gambling
road@@
Pop
SilverFast
Erhebung
biologische
aufrufen
Pfad
Gewerk@@
zurückkommen
Mitgliedsländer
responded
passion@@
ancies
transform
2050
Equipment
Files
simulation
holt
dierung
Jahreszeit
unge
controll@@
stock@@
arded
Unit
Mill@@
10th
Inten@@
electro@@
Heiz@@
Parking
Verwand@@
geg@@
traf
belastet
Konvergenz
aked
Croatian
convic@@
uts
nets
brea@@
Translation
plot
Heidelberg
Comfort
lierung
merken
Darauf
Dolomiten
Reichweite
übergreifende
flexiblen
drittens
klarstellen
quoted
cane
metals
Follow
rol
unglaublich
schlim@@
Tiefe
erzielte
wahrgenommen
gewaltige
ELDR
comprehensible
energe@@
husband
lateral
Alex@@
dringlich
veranstaltet
schwä@@
Benutzern@@
mean@@
adly
osity
attitudes
extremis@@
automobile
CI@@
Posselt
arre@@
cabin
Pod@@
kon
lassungen
läufigen
lieferungen
perfekten
Franzosen
encourages
avian
Police
dex
laufend
tür@@
einhalb
optimiert
crash
preserving
vri@@
locked
VO@@
Welle
betreut
Modell@@
trächti@@
Fischereiabkommen
105
shorter
stituted
oming
MP
rh@@
flex@@
oasis
KW
Psy@@
PayPal
Begri@@
geräumige
Rohstoffe
Wachstum@@
trug
Finanzielle
aston@@
colo@@
experiment
enced
warrant
dit
ected
mau@@
schlicht
Vorgang
Klet@@
zusammengestellt
Darlehen
Arbeitszeit
rhetoric
economical
sp
Gom@@
pressures
activists
Ali
uit@@
marble
fu
Kok@@
wirst
ektor
Rettungs@@
befreit
erhebt
mountain@@
whe@@
firma
ecker
Points
vere
Symb@@
Gesprä@@
Eingabe
berechti@@
ergänz@@
Kohäsion
definite
demon@@
captured
subjec@@
Bec@@
Sites
Baby
prozessen
Verpackungs@@
Minde@@
stellbar
vorgesehene
dropped
confidential
harder
encountered
PO
limm@@
Princ@@
DER@@
Haltestelle
Anschließend
Formate
erung@@
reservieren
Ersten
gelan@@
Griechenlands
Ministerpräsidenten
zuhalten
anwendungen
Gemeinschaft@@
widerspiegelt
ratify
stence
pse
dele@@
Á@@
Stop
defin@@
inch
Eich@@
GE@@
fert
kum@@
erhielten
ultur
soren
ssig
Kämp@@
auseln
Fundament
kritisieren
compiled
Cz@@
directors
sat
chil@@
Steinberg
bemü@@
Nachrichten@@
Klassen
bestehend
Sitzungsperiode
Überwindung
anticipated
sof@@
purchases
Dolomites
tidak
Änderungs@@
Behandlungs@@
zugang
potenziellen
scand@@
fav@@
economists
amoun@@
Gender
sist@@
eme
anding
stadium
enses
Verlag
mediterran@@
wälte
druckt
aufhalten
tigsten
Kontinents
Begleitung
organising
evenings
Turk@@
Angola
semi@@
mé@@
erstre@@
lässigkeit
behindern
folgedessen
Some@@
Cardiff
atar
Cancún
Klo@@
Räumlichkeiten
untergebracht
Trock@@
aufrechtzuerhalten
grey
Bio
toys
linen
milli@@
dum
Versicherung
Blei@@
μ@@
Vertrau@@
Viren
abschließ@@
Wäscheservice
weakness
XI
ateur
Far
promin@@
Wh@@
lieu
Activ@@
Para@@
Herzlich
Kreu@@
geschnit@@
Geschlech@@
beeindruckende
understandable
floods
bold
ranks
substan@@
organisms
chill
Slovak
wy@@
sfer
ICA
versu@@
Küh@@
erwarte
Prak@@
Erweiterungen
verantwortung
vereinbar
stream@@
suppor@@
wins
Upper
refle@@
Neut@@
Organ
bestätigung
Hotelzimmer
Attra@@
vorzugehen
hielten
anerkannten
san
fik
dimensional
PG
Carl
Mobili@@
Gothic
Luftverkehrs@@
Copy@@
Entdeck@@
problematisch
wünsch@@
Aufpreis
ungsphase
einrichten
israelische
Continental
imag@@
Fortunately
ped@@
miner@@
10.00
AB
Leiden
tranquil
stetig
nachfolgenden
Zusammenfassung
Tabellen
recognises
tism
mption
tenden@@
advan@@
Cafés
Mön@@
gewalt@@
esenen
Mannschaft
begeben
Regierung@@
erup@@
flower
Ira@@
Dame
Turni@@
komplizi@@
besser@@
gemeint
verknü@@
erhöhte
Interventionen
educated
defines
wash@@
architect
DEM
adal@@
Schuh@@
verwandelt
Wand
ückt
Kriege
gehalt
verursachten
Montreal
dei@@
imagination
Modi@@
oo
jack
CAN@@
unzählige
Verw@@
privilegi@@
erbringen
hochrangi@@
Übersch@@
Anleger
Six@@
journalist
republi@@
impressed
Want
midst
closest
pension@@
A1
Aar@@
Male
beauftragt
Auskunft
lichten
vermieten
zufriedenheit
aufgeführten
Bestände
christlichen
Zusagen
drag
14th
experiments
UK@@
Pun@@
perat@@
Balkan@@
stad@@
Motoren
ereien
ueber
übernahm
Modellen
congress
launching
County
Fire
animation
Inspi@@
park@@
Schnee
β@@
vierung
usamment@@
Netto@@
utionen
debatte
Sicherstellung
ferred
outermost
Absol@@
diagnosis
trendy
harm@@
eph@@
Evalu@@
Graphi@@
Geg@@
beauftragte
geheim@@
Ausschüssen
genetisch
vigor@@
emergence
Vali@@
magazines
unen
π@@
ernde
tigste
berat@@
getre@@
aufkommen
Birma
besuchte
geeinigt
represent@@
adop@@
qualification
privileges
Diversi@@
Vati@@
roler
exakt
Frühstücks@@
kost@@
ф@@
historisch
stungen
übertragung
änen
juristischen
Kolumbien
Gremien
genocide
configu@@
beh@@
enzo
Sw@@
Koch@@
Hybri@@
PXI
α
Wiederein@@
Ergän@@
Hauptziel
employ
pursuit
desert
exce@@
ckey
Simon
Angestellten
extremen
einigt
Brüder
strukturellen
japanische
gefertigt
demselben
vorherseh@@
öser
respec@@
inappropriate
FP@@
hosted
45@@
katho@@
stellvertre@@
Löhne
territorialen
Mittagessen
pretext
inspections
press@@
tot
Crew
Seminare
Südtirol
Nordirland
erzählen
Verschlechterung
exzellente
Korrektur
Asyl
Sozialpartner
Articles
eliminating
parent
viruses
Turin
ranking
injury
vos
Fried@@
macher
Lieutenant
Ad
duk@@
apaz@@
gängig
Anleitung
streiten
vollsten
überdenken
initiate
nutrition
Dell
lical
bond
retention
Egyptian
enna
boot@@
Minim@@
zwecken
Wohl
forder@@
Texten
westlich
denkbar
verteidigt
stresses
boy@@
sprung
ECH@@
café
batteries
CI
Beschränkung
chni@@
hervorzuheben
verläuft
abor@@
merchan@@
Hydro@@
theti@@
andin@@
Lab
mietung
gründete
wissenschaftlich
Rechtsrahmen
semin@@
tops
cation
Scottish
Us
EI@@
Legi@@
optimized
kä@@
kenne
Lande
echnik
Ticket@@
duktion
Zahl@@
widerspiegeln
verlängern
Klaren
tailor
varying
aults
dose
senses
Ferr@@
cons
Leb@@
Seminar
ers@@
atin
amendo
tzei@@
antwor@@
gewähr@@
Bemühen
priori@@
persecution
dossier
olds
prison@@
ernity
Veri@@
eri
Volk@@
Tok@@
Berlin@@
östlich
akzep@@
Strafe
Algerien
partnern
Rechtsprechung
Filmen
dark@@
Kurdish
Property
lling
Sci@@
offensich@@
Preises
ancen
Pakt
Competition
random
Euratom
particip@@
Lec@@
liquidity
continu@@
Emer@@
tradition@@
Blü@@
Monitor
Astrium
verschieden@@
Tepp@@
Schwächen
annehm@@
cure
Care
Likewise
olf
wet
statutory
Explo@@
Nepal
modul@@
Aparthotel
platt@@
Allgemein@@
aufgeben
Plattformen
slowak@@
peripheral
relevance
Thessaloniki
Associ@@
uro
grain
backup
fred
sweise
dachten
mutz@@
quick@@
municipality
apar@@
AA
Et@@
Benz
с
schmer@@
Null
Grafik@@
korrigiert
Datens@@
Ursprün@@
hoping
municipal
anto
Appell
ThyssenKrupp
gelt
wohnt
zeugt
Angehörigen
spreis
stabil
gelegentlich
Ermitt@@
successes
edt
stretch
dealer
¿
blich
disku@@
Reisenden
tagung
wachstum
detected
pir@@
forever
accessibility
isons
Map
cion@@
Donn@@
tivirus
Kontak@@
zurufen
entziehen
Temperatur@@
bürgerliche
discipl@@
passage
recti@@
Finan@@
1900
Norwe@@
dul
Temple
partment
Kamin
versorgt
Subsidiaritätsprinzip
attentive
eler@@
beck
kne@@
voltage
rocks
mais
CSS
Feedback
anschauen
Pfeiler
capit@@
lus
AVI
Lob@@
Museums
maßgeblich
Periode
täu@@
IMO
linear
conscience
jen@@
Mik@@
Buy
BB@@
installer
WAR@@
EOS
Caf@@
Misch@@
Gegen
nder
transparente
Spekul@@
Ausbruch
withdrawn
bay@@
normali@@
gin
atis@@
Stay
1944
Sender
tura
Instrument@@
solarium
keln
entsprechender
Kompromiß
vernünf@@
Warnung
bilaterale
luß@@
Sozialdemokratischen
overseas
Obst@@
thrown
deliberately
sheep
abstra@@
muster
measurements
FS@@
chio
мо@@
histor@@
Kino
Vollständigkeit
embargo
crimin@@
Iz@@
persuade
195@@
Hist@@
vegetable
aufrecht
asten
Komplex
arbeitenden
ferenz
galt
foodstuffs
teenth
collecting
pository
disc
lov
Mineral@@
Harmonie
entnehmen
artiges
Einsparungen
Hinzu
Gesichtspunkt
Kart@@
yen
possession
ograph@@
Rez@@
1966
izza
Wri@@
gelassen@@
Schriften
formulieren
Öff@@
Aufteilung
Symbole
Auftrag@@
steck@@
Konservativen
disappeared
glia
flag@@
jpg
ritten
aufnahmen
anscheinend
untersagt
beugen
vising
rewar@@
split@@
rous
home@@
Chur@@
Polo
funk
misch
baum
Hochschule
Machen
Seel@@
definitiv
stationen
Haut@@
heruntergeladen
belast@@
undes
plung
Tragen
Stoffen
Prüfungen
topical
enfor@@
convey
Seven
billions
Peri@@
protein
MS@@
MI@@
Has@@
GL@@
scan
hauses
Tauchen
repräsent@@
oberste
Wollen
modernis@@
bend
socialist
trace
E.
buffer
essel
sky@@
ubs
artikel
Aufstellung
wissenschaftlicher
affair
indul@@
dirty
enth
recreation
DB
prostitution
vegetation
Fundament@@
Palais
azz@@
Torre
Toskana
erzeugung
demnächst
bege@@
beihilfen
minded
thful
Ds
Jas@@
coating
Einleitung
Jahrestag
sätzlich
Währungsfonds
Spannung
indic@@
weaknesses
liberty
Motion
klick
verbrauch
einheimischen
ähnlicher
inated
racy
gee
Mare
Management@@
Delegationen
bilität
115
tivities
mg
eggs
sortium
Ped@@
bauer
Share
i.e
Vö@@
pada
Meeres
Grie@@
vereinen
geschah
denom@@
sanit@@
alleged
lifelong
Nic@@
competitions
Alexand@@
ii
22.@@
unger@@
erstklassige
Gemäl@@
ausgegangen
schwachen
Chirac
displaced
geable
oter
Claude
aph@@
bron@@
Fass@@
ckness
κ@@
Gerü@@
Gebäudes
Einerseits
widmet
kehrungen
chair@@
coordinating
slight
open@@
103
acu@@
zona
001
laim@@
Hart@@
malen
Verhaltenskodex
Profile
Bisch@@
dü@@
Berat@@
Chemikalien
Messen
beheben
trium@@
umbrel@@
aber@@
refreshing
Mitt@@
wöch@@
beschäf@@
ihrerseits
verwendete
osteuropäischen
handelte
nels
concessions
reminded
OSCE
spective
nan@@
righ@@
Cape
Catalunya
1956
Kamer@@
Schuld@@
OSZE
halle
kub@@
Inneren
Aussehen
bedaure
definierten
Freihandels@@
Kommissars
mitig@@
positively
tiveness
agu@@
broadband
226@@
vene@@
SERV@@
ämp@@
esische
hinnehmen
Lettland
mittelständi@@
Exporte
protectionism
rand
Happ@@
Alle@@
otyp@@
Cypri@@
compan@@
template
Clean
laundry
organizing
Affiliate
katastrop@@
verlor@@
Politikern
Handhabung
beloh@@
gänzlich
instances
deployed
1957
attending
pain@@
consec@@
EK@@
dh@@
energi@@
unkomp@@
zauber@@
igte
Kompetenz@@
polizei@@
entfernten
höher@@
risiko
ierter
weiterentwickelt
gewaltigen
Gewässern
Mitbürger
illustr@@
void
axis
earnings
eventu@@
bow@@
VA
Cleaning
stainless
Agent
MAN
Mercure
ört
vergabe
pflicht
Gefühle
einschlägigen
Biokraft@@
satis@@
barely
contro@@
precautionary
Collec@@
Rosa
pedition
ausch
asien
ergie
Wunder@@
Zeu@@
Wagen
Ehe@@
bedeutender
Freilassung
folgendes
beschleunigt
unternimmt
shame
density
establishments
gentle
Jones
Millenni@@
speisen
gangen
kostenfreien
Schwanger@@
zucht
grundsätz@@
Flusses
Einwander@@
replacing
wood@@
thirds
quiry
grande
jour
lub
Nächte
betreffende
Jahre@@
verlang@@
uneingeschränkte
momentum
shortage
progno@@
Fuss@@
Blumen
zusammenhän@@
griffe
wiederherzustellen
stamm@@
ordnungen
beunruhigt
question@@
Quite
infrin@@
reveals
sympath@@
transl@@
motivation
mysteri@@
Exempl@@
celebration
B4
confi@@
Zar@@
rasse
Garage
elung
Ansehen
Gewähr
anschließ@@
Botschaften
Besatzung
veranlassen
resist
Sich@@
que@@
QuarkXPress
Inc.
rede
steil@@
aufgegriffen
Viertens
Streben
wholly
steep
kni@@
dial@@
positioned
Schauspieler
Leser
zyklus
erzeugnisse
Gesetzgeber
getroffenen
inequalities
sidents
accomplished
E.@@
Niel@@
facilitating
Davi@@
fically
varieties
acid
thou
differ@@
tub
Estate
Momente
LIN
Sandstrand
verfassungs@@
auswahl
Bibliotheken
Demokratischen
stenten
sprüche
älteste
Lebensbedingungen
gewahrt
vorüber@@
speculation
stered
thir@@
Öster@@
Made
03.@@
esthouse
Eis
stellern
nächstes
inierte
utor
shoulder
prises
Brit@@
STO@@
ito
liest
dec
Ferrari
graben
gesetze
Singapur
unterschiedlichsten
berechtigte
zweier
gründet
Scientific
wearing
reserv@@
screens
fem@@
kr@@
Sciences
Ungleich@@
miet@@
Wartungs@@
Herstell@@
Verhältnis@@
Klassen@@
obgleich
Liberals
contradiction
FF
accompany
gues
sko
Below
dine
....@@
sensors
OS@@
geplante
poorer
PHARE
experimental
Cash@@
Fam@@
aine
entino
hine
Stick
Oster@@
verbesserten
Nachtleben
zügig
ausschließ@@
hinreich@@
Zweifel@@
Damals
sozio@@
moment@@
screening
etch
tim
1.0
Verkehrsmitteln
ängen
mitzuteilen
lebens
agenturen
vertrieben
Kohle
Zusammenhalts
liberale
redund@@
crop
anymore
networking
influences
yar@@
manually
Bayern
Alli@@
Kit
steigerung
nein
halten@@
ästheti@@
belastung
jahres
folgend
Klausel
genten
Konferenz-
unilater@@
iden
mitting
acres
banana
Jen@@
Near
aser
Laundry
Laser
Anstatt
verläss@@
Unser@@
richtete
chains
restric@@
lou
ags
alogues
tiles
ök@@
sprechende
pfer@@
Befürchtungen
Bonus@@
möge
günstiger
ehrgeizige
historischer
Unregelmäßigkeiten
Lieferungen
repräsentiert
derartiger
Aufstockung
servatives
correspond
Rober@@
UP
yacht
merkt
Rhyth@@
soll@@
angekommen
glichkeiten
bestrebt
Teils
Aufbau@@
dening
rea
mothers
infection
coin
auction
mounting
transform@@
jah@@
halls
egen@@
Fotografi@@
herkömmlichen
setzungen
Gemeinschaftsebene
Alpes
lack@@
manipulation
strich
ket@@
Nei@@
Sla@@
Gardens
Color
schiff@@
blauen
äter
geprä@@
versichert
vivi@@
disadvantaged
Russians
preparatory
multitude
eten@@
CV@@
1939
Nau@@
Wid@@
WordPress
geschlossen@@
Genau@@
tilien
Genfer
reinen
lässig
verweigert
Erleichterung
successor
masters
Appar@@
Traff@@
INI
SR@@
Fant@@
ν@@
Geschäftsreisende
Vieh@@
willigen
ardian
transi@@
fortress
strip
finger
drama
orthodo@@
C.@@
Anth@@
³
Badewanne
Befreiung
einfaches
förderungs@@
Typen
Verstöße
bridges
codi@@
picked
intensity
Ray
tschaft
mende
Übersetz@@
Unfall
Heraus@@
time@@
Rotterdam
Exist@@
ktor
analog
spri@@
Touch
komb@@
steil
Daneben
Persönlichkeit
Spaniens
Wechselkur@@
elimination
eliminated
springs
GMOs
roph@@
archives
ARC
injection
Records
Patch
bräu@@
ziehungs@@
Genehm@@
Variablen
Wohlergehen
herauszufinden
Herzegowina
gedenkt
abgedeckt
strongest
outline
voir
updating
offensive
happ@@
turnover
vio
Italia
Stress
1200
unde@@
kW
amos
Einfach
Christus
Bestandteile
aussieht
Privatisierung
Erwärmung
exemption
accountable
verage
Farm
Electronic
cocktail
Pay@@
Glan@@
Ment@@
bookings
rics
Course
splan@@
Atlantik
funktions@@
aufw@@
verzeichnis
Nahrung
Plätzen
gekrön@@
gefährlicher
Erzeugnissen
hospitals
irregularities
Total
alleg@@
acity
Trading
Down@@
neuro@@
Mist@@
model@@
honor
Spiegel@@
unüber@@
gestütz@@
arisierung
jenseits
hinausgehen
ernähr@@
predictable
threaten
undering
1948
ounce
asymm@@
eses
entin
sciences
Ja@@
Champs
sprachige
Streit
Erlaubnis
Standor@@
Reisende
eingeb@@
Belastungen
unterstützten
Incre@@
negligence
attracted
Isa@@
Corbett
basin
mill
Lac@@
chel@@
NO
MAS@@
GIMP
Vertrauens@@
befindlichen
gemeldet
Berichterstattung
veränderten
enttäu@@
FÜ@@
Geschwindi@@
wählt
Wiederaufnahme
Protektionismus
objections
rami@@
side@@
orph@@
Fall@@
nett
ünden
bester
antwortet
altogether
ested
Arafat
descriptions
YO@@
resear@@
Zagreb
dum@@
zoom
spiritu@@
ą@@
ausreich@@
zweites
entscheidungen
strecken
fachen
geehrter
Dalai
Official
avoid@@
assu@@
bow
factories
reward
Erasmus
petit
Screen@@
Konsu@@
begannen
idylli@@
Akteuren
wünschte
dened
Mut@@
commissioned
Ecofin
rises
Wan@@
uba
Fris@@
Walking
privat
ganzes
vermei@@
Gründer
schrecklichen
unterrichtet
appelliere
Stabilitätspakt
Verfas@@
Questions
Wallström
deterior@@
Gene@@
upgraded
econom@@
Uganda
agn@@
baden
Liga
telefon@@
Infineon
ethnische
Milliarde
sahen
vertrags
überwachung
gaps
motiv@@
Fit@@
dich@@
ause
Oran@@
Palm
polnische
appe
wissens@@
elektrischen
Münzen
Auszeichnung
abstimmung
einräumen
recipient
nesses
ção
Alt
heiligen
glän@@
Werkzeug@@
Diskussions@@
nischer
Anlage@@
verarbeiten
Schulungen
konfigu@@
treating
cave
Magazin
Stä@@
strahlung
euer@@
rechnet
unglück@@
währung
instruction
grace
sme@@
dying
accus@@
incredibly
wag@@
38@@
EURO
Hi
Zoo
Generi@@
CNC
strei@@
befes@@
rationen
einnahmen
befürchten
eau
capitalist
incurred
tissue
itement
Zir@@
brü@@
hten
Eintritts@@
beliebige
Behauptung
ermutigt
vorgaben
preci@@
1964
Gad@@
Pilot
ketball
Trainings@@
Beantwortung
halbe
Gleiche
traten
überschritten
Gescheh@@
entdeckte
zusätzlicher
vorwiegend
teilnehmenden
rüstung
besorgniserre@@
ammer
ularly
Afghan
1962
Geor@@
hafen
Cost@@
ка@@
franzö@@
versicherungs@@
Schienen@@
Vergabe
Füßen
abhängt
nez
rigor@@
Almost
college
cultivation
flation
speeds
atics
Mig@@
Cambridge
Vinc@@
donation
fängt
operieren
offenkundig
obliegt
Ankara
sister
motto
hosp@@
atories
confronted
vide@@
135
Ang@@
Sex
geschäfte
allet
Krebs
brücke
verfü@@
Instanz
äume
unverändert
richtlinien
chtest
Veranstaltungsräume
Haushaltsausschusses
Verurteilung
repercussions
Exc@@
fortun@@
ane@@
coa
unab@@
undes@@
laptop
alto
ERP
Klu@@
Noten@@
Wellnessbereich
komfort@@
Eigentums
broke
guiding
Stream
emotions
arious
oul
designing
zzle
Salvador
bring@@
ccer
Digit@@
Dorf@@
inkl
Flair
Sied@@
Paar
Kommando
Größen
Ausdehnung
Fax-
São
blow
Reding
cham@@
ghty
api@@
einzeln
schal@@
marken
Sogar
häufigsten
Auseinandersetzungen
sensiblen
Verwenden
collap@@
agan
Flora
memb@@
triple
bean@@
konvention
organisator@@
Anbau
aspirations
prov@@
vocal
pragmatic
Domini@@
Fine
asty
Lic@@
CRM
Ausnahme@@
ganzhei@@
Konsum
ämmen
shipment
ulf
rial
posting
plo@@
gic
Abra@@
rays
Nikol@@
bij@@
Ausserdem
umfangreich@@
EIN@@
echtes
Gastronomie
lität
zwingend
Fische
verfasst
Iber@@
help@@
GAT@@
monastery
Around
Milano
Strei@@
Filter@@
ени@@
Dauer@@
staates
willen
Evaluierung
orientieren
verlaufen
häufi@@
konkreter
nachkommen
abzustimmen
SOL@@
tired
German@@
Linz
kem@@
Dün@@
Villen
Ideologie
IER
Konsequenz
aufgeteilt
tee
Swe@@
Cyber@@
1961
dalam
gebil@@
sofor@@
älen
Laufzeit
transeuropäischen
exportieren
inau@@
consultants
Alicante
itar@@
Markus
Patente
befin@@
Beein@@
einwand@@
anbieter
Stärken
beanspru@@
Klärung
allevi@@
critics
tariffs
timent
gun
asa
sq@@
EST@@
Werde
sitzt
Zufall
Experten@@
solle
exercises
heav@@
teeth
vulnerability
ference
Annan
corresponds
cand@@
Frankfurter
diameter
dow@@
Posten
later@@
voor
Graz
kab@@
eger
Radisson
fortgeschrit@@
Größen@@
Ergeb@@
Kommunismus
Mitentscheidung
chment
professor
zh@@
LIFE
matching
Marra@@
Liechtenstein
sprin@@
Arn@@
eger@@
zwecke
Inhalts@@
ktiver
fehlenden
schrei@@
angehört
disadvantage
market@@
Partic@@
Men
tackled
Gent@@
iss
scrat@@
kommend
außen@@
gleicht
Verzeichn@@
zivi@@
seinerzeit
variations
yards
regulating
Ou@@
may@@
mature
ECT
rag@@
Kreis@@
HER@@
ender@@
POR@@
präsent
decke
ühlen
behilflich
ägyp@@
afft
gesetzgebung
seitigkeit
Wäldern
dlern
Renten
Tunnel
isen@@
complied
lifetime
ographi@@
Georg
temple
10,000
Synchron@@
östliche
Akt
jeglichen
Speicherk@@
Kürzungen
lander
stamp@@
devastating
endt
rehabilitation
arks
Reservi@@
Koalition
personalized
Kohäsionsfonds
Erdgeschoss
großzügig
virtuelle
üpp@@
restlichen
streng@@
europaweit
compensate
Cany@@
Commons
assemb@@
ampli@@
Jarzembowski
mobil@@
alis
Archer
Mein@@
liv@@
Conil
umfangreiches
läufig
zögern
Varianten
dienstes
Rücksicht
unterstützte
allgemein@@
agnen
vertrauens@@
daraufhin
ehrgeizigen
Lyn@@
distances
Liikanen
chaos
ush@@
refund
chise
Ludwig
Strö@@
Grafik
Krankenhaus
längeren
Dien@@
Schauen
Dienstleistungsrichtlinie
haltens
sooner
vei@@
Ethiop@@
Maybe
List@@
livestock
sed@@
proph@@
Istri@@
1920
Softwa@@
Forschungs-
entierte
einstellungen
MEP
issuing
Lomé
Georgi@@
Self
Track
krieg
adas
guest@@
zuvor@@
Süß@@
Hunder@@
leug@@
drän@@
Bearbeitungs@@
sixth
formulated
hun@@
light@@
Carlo
Cont@@
räte
gängigen
erledigen
läßlich
gendsten
allgemeiner
ausgeht
ernsten
auszubauen
Bestreben
decides
competing
infin@@
aband@@
vens
isol@@
Martini
architects
frozen
lib@@
actu@@
aesthetic
Virtu@@
bezir@@
HT
MHz
Kirchen@@
Autovermietung
Flugzeug@@
lebte
nischen
geared
gher
Cadiz
symptoms
computer@@
func@@
melo@@
Leone
deliveries
signatures
pi
es.@@
ANT@@
Käse
ennung
massiv
juristische
wirtschaft@@
Richtungen
isieren
Konfigurations@@
Friedensprozess
enshrined
ridi@@
Has
accoun@@
Vac@@
drawings
Banking
news@@
Mr@@
Send@@
Residenz
discher
Auslieferung
Körpers
prüft
komponenten
lenstoff@@
positiver
renovation
varies
notify
occasionally
11.00
flood
fia
attack@@
CF
ă@@
р
Brief@@
hoben
Zyper@@
Angela
Slo@@
mans
Silver
ELL@@
щ@@
1990er
Betrieben
Gesundheitsversorgung
Errungenschaften
herbeizuführen
envis@@
generates
fec@@
assumption
liberalization
Klei@@
Miles
Bilder@@
sti
e.V
graf@@
Skep@@
lindustrie
tragene
überarbeitet
nachtei@@
fürchte
commend
disch@@
subsi@@
forbidden
yan
beau@@
Max@@
Acrobat
umfassender
keit
bettzimmer
Venti@@
Telekommunikation
Wirtschaft@@
gesteuert
voranzubringen
Iceland
bulk
tuna
kanal
Oase
ausgedeh@@
konzer@@
Züge
Dimensionen
gewöh@@
Pestizi@@
komplizierten
bour@@
Certainly
bum@@
eto@@
geist
Christi@@
Carmen
spiegel
Gh@@
Expo
minist@@
konsu@@
freiwillige
kehrt
Durchbruch
Auswirkung
Schriftliche
verification
ambiguous
excluding
resident
span
rigi@@
seem@@
vation
sty
wr@@
jury
Patrick
Gat@@
gger
bass
Buyer
IVE
toff@@
Freund@@
Logos
Marktan@@
meng@@
konzentri@@
Handlung
beeindruckenden
Schwäche
Resol@@
investi@@
policymakers
enchanting
Purch@@
rats@@
ASE
zau@@
produ@@
acion
Mio
ärten
getr@@
Weihnachten
radik@@
dear
deter@@
9.00
realities
delightful
cone
mund
Columbia
Imperial
ritte
Brot
soviel
Lagerung
Eingan@@
scheu@@
breiter
Serviceleistungen
unvergleich@@
onischen
Skulp@@
Applikation
unterzeichnen
imstande
beschäftigung
pity
financially
oun@@
coupled
prevail
nationalism
tends
promptly
Try
ño
Arc@@
Anmel@@
fabrik
Schulung
Camping@@
schiffe
studierte
shores
credited
Serbian
Mont
promotional
Carl@@
igt
Partition
istik
Platten
anmerken
Teilnehmer@@
Kampagnen
Verpack@@
blieben
Geträn@@
gewäs@@
Mitgliedstaates
substitute
severely
TACIS
Naples
Gall@@
Platform
interoper@@
grades
Las@@
Clin@@
ň@@
Erforschung
konvention@@
bevorzugen
stürzen
krei@@
riebenen
Verknüpfung
rab@@
sustain
somehow
Supreme
satelli@@
pump
32@@
Adam@@
fireplace
brow@@
Marc
gourmet
schich@@
Weitergabe
krie@@
schlug
ankommt
erledigt
Haftbe@@
simpler
occurring
emplo@@
conceived
Spiri@@
conversation
Shin@@
liner
Moo@@
informations
IMM@@
tritte
absoluten
Themas
geordnete
Streitigkeiten
commission@@
concer@@
accurately
NA@@
juice
breast
proofed
Meerblick
Riesen@@
Dienstleister
umgewandelt
Erwägungen
Trans
II@@
persistent
recreational
Spri@@
Miner@@
BB
Donau
Edit
lokal
sebene
verständnis
buchs
vertiefen
initiativen
fasste
geschaff@@
empfehle
unberühr@@
Ausgewogenheit
ost
essors
alistic
Eden
ember@@
Barro@@
intern
äck@@
einander@@
gebot@@
voraussichtlich
Gewis@@
Unfälle
persönliches
Rücktritt
überschreiten
meisterschaft
augen@@
Kampfes
Einmischung
forti@@
Mec@@
P.
Quick@@
catalog
ermögli@@
Frühling
unterstütz@@
Unrecht
graus@@
Bewirtschaftung
ject
capita
privilege
horri@@
llon
Orange
Flor@@
Josef
Bow@@
Schir@@
Jesolo
Klingon
Arten@@
erweist
nördlich
schwächen
Nachweis
gebern
parado@@
iners
conven@@
Peru@@
urer
ciano
univer@@
bein@@
Stoff@@
öhne
haltungs@@
Abfahrt
äuft
Vorsorge@@
staff@@
destroying
Myanmar
senal
moul@@
therapeutic
gion
amas
itiner@@
ima
Aven@@
fabrics
asch@@
woll@@
mittelalter@@
Pfund
berechnen
Diagnose
unterricht
Meinungsfreiheit
secular
manoeu@@
storm
licences
essimis@@
manipul@@
achen
Divi@@
Australian
ambots
Vormittag
kw
ischerweise
herum@@
amerikan@@
Zivilisten
erkrank@@
diesjährigen
Fahren
einzigartiges
anwen@@
Wortlaut
kontinuier@@
seasonal
appropriately
Father
likes
ademi@@
Agen@@
120@@
Umstand
Käl@@
Zuschauer
sphase
Unterrich@@
operativen
Bedauern
Eurojust
arities
casts
Impro@@
vic
Kunsth@@
lässi@@
Verband
aufgegeben
zusammengefasst
überraschend
Lärm
Bevölkerungsgruppen
Botschafter
Haushaltskontrolle
erous
pon@@
wle@@
defended
Cohn
Goals
Starting
Valle
thy@@
Mars
junior
oven
Gn@@
biking
rote
flich
Gestern
fragte
Energiem@@
ffekt
Betrü@@
conception
royal
leyball
melten
Wärme@@
Haftungs@@
Zertifik@@
langjährigen
jer
Ten
biotechnology
Innenhof
begrüß@@
dafri@@
wohlhab@@
earliest
reas@@
Yesterday
Globalisation
slave
Heinrich
lender
SIM@@
scanner
BG
kann@@
deinem
Prozessen
Wunsch@@
ankommen
Standorte
Arabien
Qualifikationen
sofortige
verhaftet
Diplomatie
dehnen
thema
ethics
eval
ycle
antibio@@
Alzheimer
profi@@
PI
Málaga
GNOME
Technologie@@
Fotografen
Kuli@@
verlin@@
beschä@@
inische
anspruchsvollen
güter
thou@@
4000
phenomena
Seville
balls
thotel
stück@@
klam@@
Ostse@@
angebot@@
tlichkeit
Gehäuse
sammelt
großartigen
BI
sided
atility
Disney
xer
hetero@@
1.3
longest
enix
да@@
igungs@@
ausstellung
ordentlich
katastrophal@@
Einigkeit
bedingten
Kodex
begehen
erneuerbarer
iced
tap
1970s
enstein
Communications
Spy@@
travel@@
Wertpapier@@
Pixel
beträchtlichen
Mehrheits@@
alisierungen
Parlamentarier
Unterscheidung
ral@@
restriction
Spec@@
exceeded
pause
Europar@@
Teh@@
ö
Japan@@
erem
pflich@@
Banan@@
unbesch@@
Erläu@@
establishes
failures
utable
dable
applau@@
1930@@
fulfill
shapes
blas@@
film@@
Bres@@
GEN@@
Co.
Lite
Öffnen
offener
schätze
einziger
Strafen
Umwelt-
trage@@
alarming
Pé@@
round@@
Knowledge
MR@@
Built
seating
ui
Engine@@
deutlichen
städte
Fachleute
kündigen
übereinstimmen
moralischen
cially
bekistan
Plans
oman
240
plen@@
ree
erei@@
arkt
Fußgänger@@
anfän@@
Erholungs@@
Jahrhunderten
operi@@
grundle@@
beurteilt
chant
akis
feeding
duly
photographer
Date
Profil@@
Installer
Skript
rahmen@@
schär@@
shofes
auszuführen
thread
fauna
predomin@@
tongue
Bendit
ggen@@
stun@@
mom@@
GS
Sinn@@
öne
weiß@@
eingenommen
länger@@
Urlaub@@
Zusch@@
mitgliedern
tune
contamination
uncertain
testim@@
chronic
Telec@@
forge
demonstrating
Integr@@
Pes@@
thropo@@
Jed@@
Gab@@
Homo@@
formuli@@
Sendung
Länder@@
ordnet
erwarteten
kontinuierliche
dently
specification
less@@
possess
monum@@
opath@@
Early
consu@@
oner
Wie@@
Arctic
Com
ritz
conduc@@
Malaria
WA
cc
TCP
conf
gangs@@
tasie
stücken
bewusstsein
entlassen
Toten
Ökonomie
etabliert
termination
acute
trigger
business@@
Managing
Mam@@
Finger@@
cap
Snacks
angem@@
Verstoß
Russen
angezogen
rolled
quanti@@
connects
dice
blend
bian@@
Authenti@@
Oft
TOS
gl.
palästinensische
faden
Aktualität
Konzeption
übersehen
Aufnahme@@
vorsehen
Folgenab@@
Codes
trage
brown
190
bell
versatile
Style
Eh@@
demo
Student@@
Aktion@@
Eisenbahn
Mitglied@@
strengere
vernehmen
Berechti@@
ghted
foreigners
fisher@@
armament
resses
garde
Restau@@
gif@@
Vorstands@@
kapitali@@
Messung
Bezug@@
Enttäuschung
überleben
angestre@@
multinationalen
Ökonomen
live@@
literary
SR
dali@@
extre@@
king@@
cafes
Keller
schwarze
Bestand
ärz@@
titel
Gebäu@@
Pflan@@
aktuell@@
Beobachtung
sudden
AU
intermedi@@
jump
lash@@
SO
peaks
Ministeri@@
lamp@@
Photocopying
Auftritt
Konzern@@
beherrscht
zweck
wägen
corner@@
constituency
jur@@
absta@@
Beautiful
Greg@@
ahr
Mär@@
Öffent@@
Glückwunsch
Beteilig@@
gelegten
Telefonnummer
Schengener
Überschwemmungen
angesprochenen
Rüstungs@@
luxuriösen
depl@@
mankind
abolished
negoti@@
plurali@@
sburg
800@@
Reser@@
ism@@
Stolz
Legen@@
Signal@@
Flam@@
erholsamen
unternehmen@@
stehend
forecasts
contribut@@
ologist
assy
Dubrovnik
jü@@
höchstem
lossene
mediterranen
Anfänger
jenem
mangelt
Unger@@
niedrigeren
Fotokopiereinrichtungen
beneficiaries
devote
injured
Fort
incomplete
Lamy
BF
Money
Wine
uel
Nationalismus
gepflegt
Liebhaber
Medik@@
strikt
lacks
expecting
stricter
Otto
Weber
A6
Chro@@
Elek@@
grä@@
binary
-B4
wieso
Ansonsten
graphie
konver@@
Meilenst@@
beziehe
Aid
advocates
unk
Thal@@
Schaff@@
rations@@
Terrain
erkt
fikations@@
befand
Straßenverkehr
Fitnesscenter
Aufschwung
bevorzugt
beteiligung
wärtigen
Sichtweise
Änderungsantrags
Informationsschalter
worthwhile
detriment
lawyer
punished
Brazilian
ESA
incap@@
encryption
sements
discounts
GO@@
Bristol
tten@@
Centro
Kak@@
türk@@
forsch@@
Zuwanderung
lauten
Roten
worfen
Auftreten
Instand@@
Bekan@@
wovon
eingetragen
physikali@@
criticisms
Treas@@
Assad
EFA
precedent
sym@@
backdrop
documentary
color@@
guy
brigh@@
Pariser
getro@@
Jeden
Deck@@
verschieden
Seitdem
erstattet
genheit
ereig@@
wörter
gelder
affung
exported
Sharon
diagra@@
Andrea
istics
eBay
lung@@
Geburtstag
leger
tiefer
erkan@@
Naturschutz@@
Erforder@@
Stück@@
renommierten
strategischer
rückt
Jungen
verschärfen
Beitrittskandidaten
Beschleunigung
enforced
containers
Establi@@
Eri@@
rought
consciousness
amaz@@
aires
remuner@@
hub
licenses
12th
Challenge
institu@@
tums
tsprü@@
ließ@@
Schlag
wohin
Umfrage
Kalten
Beschluss@@
transparenter
Vertiefung
Geburts@@
zwingt
beizubehalten
inherent
clarified
clari@@
Oil
misleading
subsidiaries
cks@@
Bene@@
wäsche
Speise@@
anischer
Erinnerungen
exklu@@
Auswertung
weitergehen
staun@@
nationality
judged
commem@@
Gates
tails
foun@@
CAM@@
M.@@
Sounds
bulgar@@
sono
iran@@
elligkeit
attraktiv
warme
orienti@@
kunft
Haupts@@
stattfand
sheit
Verlei@@
Waffe
LT@@
anium
Tibetan
Franco
Carol@@
GMO
Particip@@
copper
molec@@
magical
wächt
freiwilligen
Liter
euren
Ausflug
eindeutigen
übergreif@@
aufgezeigt
invali@@
Rati@@
logos
9th
inta@@
riff
Renovi@@
intellektu@@
übergreifenden
anges@@
intensiver
potenzielle
Gewässer
delight
tones
scandal
indicating
unded
colourful
balancing
corrected
Oomen
Anne
rout@@
Coll@@
iter
Esc@@
aco
Brasi@@
Antibio@@
E.ON
oriums
tsch
Mitteilungen
demnach
äumt
bitter
confront
hops
licensing
defect
Mauri@@
slot
iten@@
Infra@@
Steph@@
Mike
oma
stel@@
verein
eo@@
Segment
rentals
Chemie
Linke
schränken
wanderung
pakete
Besatz@@
schnellstmöglich
Reservierungen
vy
populated
pered
Way
tian
Books
memorable
patio
fr
Dialog@@
rechtlicher
Stufen
Straftaten
telefonisch
Anleihen
Entscheidungsfindung
Evans
forcing
expects
Brie@@
unite
worn
Day@@
Embry@@
valleys
Package
Profit
scenic
Ring@@
cozy
install@@
ل@@
nötige
geradezu
Übernachtungen
etern
wäch@@
müßten
wettbewerbsfähig
ticism
burdens
ept@@
Twin
mina
orie
Diesel@@
liebe@@
Terme
äus@@
elektro@@
farbe
Kommissionsmitglied
Cox
steady
MAS
verified
impul@@
2.4
curi@@
bezo@@
Bettwäsche
Seu@@
unabhängiger
prinzipien
Drittländer
Bewerber@@
postponed
infected
rigid
recordings
650
psy@@
verab@@
zusätz@@
kombinieren
Erwachsen@@
üblicherweise
Kraftstoff@@
Vitorino
Taking
suspect
submission
strations
agers
Six
fiction
Acces@@
prospec@@
Re
did@@
ourc@@
FIFA
autori@@
pertoire
fairs
realization
PN
Übersetzer
touren
Rang
Wertpap@@
sinken
Fahrzeu@@
fenen
Jubil@@
legungs@@
gleichnam@@
finnischen
WWU
Handels-
Beschäftigungspolitik
swim
cosmo@@
Alan
generic
Freu@@
Miguel
nament@@
IDE
critici@@
ONE
Bezirk
angrenz@@
etzung
Kommen
Treffpunkt
archä@@
Anpassungs@@
Aktionsp@@
Kürzung
Communities
Andre@@
BBC
arta
dd
Renault
Chap@@
[...]
